<pad>	0
<unk>	0
<s>	0
</s>	0
<hanja>	0
<hangul>	0
<mask>	0
<|system|>	0
<|user|>	0
<|assistant|>	0
<|end_of_turn|>	0
<|think|>	0
<|tool_call|>	0
<|tool_result|>	0
<|reserved_0|>	0
<|reserved_1|>	0
<|reserved_2|>	0
<extra_id_0>	0
<extra_id_1>	0
<extra_id_2>	0
<extra_id_3>	0
<extra_id_4>	0
<extra_id_5>	0
<extra_id_6>	0
<extra_id_7>	0
<extra_id_8>	0
<extra_id_9>	0
<extra_id_10>	0
<extra_id_11>	0
<extra_id_12>	0
<extra_id_13>	0
<extra_id_14>	0
<extra_id_15>	0
<extra_id_16>	0
<extra_id_17>	0
<extra_id_18>	0
<extra_id_19>	0
<extra_id_20>	0
<extra_id_21>	0
<extra_id_22>	0
<extra_id_23>	0
<extra_id_24>	0
<extra_id_25>	0
<extra_id_26>	0
<extra_id_27>	0
<extra_id_28>	0
<extra_id_29>	0
<extra_id_30>	0
<extra_id_31>	0
<extra_id_32>	0
<extra_id_33>	0
<extra_id_34>	0
<extra_id_35>	0
<extra_id_36>	0
<extra_id_37>	0
<extra_id_38>	0
<extra_id_39>	0
<extra_id_40>	0
<extra_id_41>	0
<extra_id_42>	0
<extra_id_43>	0
<extra_id_44>	0
<extra_id_45>	0
<extra_id_46>	0
<extra_id_47>	0
<extra_id_48>	0
<extra_id_49>	0
<extra_id_50>	0
<extra_id_51>	0
<extra_id_52>	0
<extra_id_53>	0
<extra_id_54>	0
<extra_id_55>	0
<extra_id_56>	0
<extra_id_57>	0
<extra_id_58>	0
<extra_id_59>	0
<extra_id_60>	0
<extra_id_61>	0
<extra_id_62>	0
<extra_id_63>	0
<extra_id_64>	0
<extra_id_65>	0
<extra_id_66>	0
<extra_id_67>	0
<extra_id_68>	0
<extra_id_69>	0
<extra_id_70>	0
<extra_id_71>	0
<extra_id_72>	0
<extra_id_73>	0
<extra_id_74>	0
<extra_id_75>	0
<extra_id_76>	0
<extra_id_77>	0
<extra_id_78>	0
<extra_id_79>	0
<extra_id_80>	0
<extra_id_81>	0
<extra_id_82>	0
<extra_id_83>	0
<extra_id_84>	0
<extra_id_85>	0
<extra_id_86>	0
<extra_id_87>	0
<extra_id_88>	0
<extra_id_89>	0
<extra_id_90>	0
<extra_id_91>	0
<extra_id_92>	0
<extra_id_93>	0
<extra_id_94>	0
<extra_id_95>	0
<extra_id_96>	0
<extra_id_97>	0
<extra_id_98>	0
<extra_id_99>	0
<extra_id_100>	0
<extra_id_101>	0
<extra_id_102>	0
<extra_id_103>	0
<extra_id_104>	0
<extra_id_105>	0
<extra_id_106>	0
<extra_id_107>	0
<extra_id_108>	0
<extra_id_109>	0
<extra_id_110>	0
<extra_id_111>	0
<extra_id_112>	0
<extra_id_113>	0
<extra_id_114>	0
<extra_id_115>	0
<extra_id_116>	0
<extra_id_117>	0
<extra_id_118>	0
<extra_id_119>	0
<extra_id_120>	0
<extra_id_121>	0
<extra_id_122>	0
<extra_id_123>	0
<extra_id_124>	0
<extra_id_125>	0
<extra_id_126>	0
<extra_id_127>	0
<extra_id_128>	0
<extra_id_129>	0
<extra_id_130>	0
<extra_id_131>	0
<extra_id_132>	0
<extra_id_133>	0
<extra_id_134>	0
<extra_id_135>	0
<extra_id_136>	0
<extra_id_137>	0
<extra_id_138>	0
<extra_id_139>	0
<extra_id_140>	0
<extra_id_141>	0
<extra_id_142>	0
<extra_id_143>	0
<extra_id_144>	0
<extra_id_145>	0
<extra_id_146>	0
<extra_id_147>	0
<extra_id_148>	0
<extra_id_149>	0
<extra_id_150>	0
<extra_id_151>	0
<extra_id_152>	0
<extra_id_153>	0
<extra_id_154>	0
<extra_id_155>	0
<extra_id_156>	0
<extra_id_157>	0
<extra_id_158>	0
<extra_id_159>	0
<extra_id_160>	0
<extra_id_161>	0
<extra_id_162>	0
<extra_id_163>	0
<extra_id_164>	0
<extra_id_165>	0
<extra_id_166>	0
<extra_id_167>	0
<extra_id_168>	0
<extra_id_169>	0
<extra_id_170>	0
<extra_id_171>	0
<extra_id_172>	0
<extra_id_173>	0
<extra_id_174>	0
<extra_id_175>	0
<extra_id_176>	0
<extra_id_177>	0
<extra_id_178>	0
<extra_id_179>	0
<extra_id_180>	0
<extra_id_181>	0
<extra_id_182>	0
<extra_id_183>	0
<extra_id_184>	0
<extra_id_185>	0
<extra_id_186>	0
<extra_id_187>	0
<extra_id_188>	0
<extra_id_189>	0
<extra_id_190>	0
<extra_id_191>	0
<extra_id_192>	0
<extra_id_193>	0
<extra_id_194>	0
<extra_id_195>	0
<extra_id_196>	0
<extra_id_197>	0
<extra_id_198>	0
<extra_id_199>	0
<extra_id_200>	0
<extra_id_201>	0
<extra_id_202>	0
<extra_id_203>	0
<extra_id_204>	0
<extra_id_205>	0
<extra_id_206>	0
<extra_id_207>	0
<extra_id_208>	0
<extra_id_209>	0
<extra_id_210>	0
<extra_id_211>	0
<extra_id_212>	0
<extra_id_213>	0
<extra_id_214>	0
<extra_id_215>	0
<extra_id_216>	0
<extra_id_217>	0
<extra_id_218>	0
<extra_id_219>	0
<extra_id_220>	0
<extra_id_221>	0
<extra_id_222>	0
<extra_id_223>	0
<extra_id_224>	0
<extra_id_225>	0
<extra_id_226>	0
<extra_id_227>	0
<extra_id_228>	0
<extra_id_229>	0
<extra_id_230>	0
<extra_id_231>	0
<extra_id_232>	0
<extra_id_233>	0
<extra_id_234>	0
<extra_id_235>	0
<extra_id_236>	0
<extra_id_237>	0
<extra_id_238>	0
<extra_id_239>	0
<extra_id_240>	0
<extra_id_241>	0
<extra_id_242>	0
<extra_id_243>	0
<extra_id_244>	0
<extra_id_245>	0
<extra_id_246>	0
<extra_id_247>	0
<extra_id_248>	0
<extra_id_249>	0
<extra_id_250>	0
<extra_id_251>	0
<extra_id_252>	0
<extra_id_253>	0
<extra_id_254>	0
<extra_id_255>	0
<extra_id_256>	0
<extra_id_257>	0
<extra_id_258>	0
<extra_id_259>	0
<extra_id_260>	0
<extra_id_261>	0
<extra_id_262>	0
<extra_id_263>	0
<extra_id_264>	0
<extra_id_265>	0
<extra_id_266>	0
<extra_id_267>	0
<extra_id_268>	0
<extra_id_269>	0
<extra_id_270>	0
<extra_id_271>	0
<extra_id_272>	0
<extra_id_273>	0
<extra_id_274>	0
<extra_id_275>	0
<extra_id_276>	0
<extra_id_277>	0
<extra_id_278>	0
<extra_id_279>	0
<extra_id_280>	0
<extra_id_281>	0
<extra_id_282>	0
<extra_id_283>	0
<extra_id_284>	0
<extra_id_285>	0
<extra_id_286>	0
<extra_id_287>	0
<extra_id_288>	0
<extra_id_289>	0
<extra_id_290>	0
<extra_id_291>	0
<extra_id_292>	0
<extra_id_293>	0
<extra_id_294>	0
<extra_id_295>	0
<extra_id_296>	0
<extra_id_297>	0
<extra_id_298>	0
<extra_id_299>	0
<extra_id_300>	0
<extra_id_301>	0
<extra_id_302>	0
<extra_id_303>	0
<extra_id_304>	0
<extra_id_305>	0
<extra_id_306>	0
<extra_id_307>	0
<extra_id_308>	0
<extra_id_309>	0
<extra_id_310>	0
<extra_id_311>	0
<extra_id_312>	0
<extra_id_313>	0
<extra_id_314>	0
<extra_id_315>	0
<extra_id_316>	0
<extra_id_317>	0
<extra_id_318>	0
<extra_id_319>	0
<extra_id_320>	0
<extra_id_321>	0
<extra_id_322>	0
<extra_id_323>	0
<extra_id_324>	0
<extra_id_325>	0
<extra_id_326>	0
<extra_id_327>	0
<extra_id_328>	0
<extra_id_329>	0
<extra_id_330>	0
<extra_id_331>	0
<extra_id_332>	0
<extra_id_333>	0
<extra_id_334>	0
<extra_id_335>	0
<extra_id_336>	0
<extra_id_337>	0
<extra_id_338>	0
<extra_id_339>	0
<extra_id_340>	0
<extra_id_341>	0
<extra_id_342>	0
<extra_id_343>	0
<extra_id_344>	0
<extra_id_345>	0
<extra_id_346>	0
<extra_id_347>	0
<extra_id_348>	0
<extra_id_349>	0
<extra_id_350>	0
<extra_id_351>	0
<extra_id_352>	0
<extra_id_353>	0
<extra_id_354>	0
<extra_id_355>	0
<extra_id_356>	0
<extra_id_357>	0
<extra_id_358>	0
<extra_id_359>	0
<extra_id_360>	0
<extra_id_361>	0
<extra_id_362>	0
<extra_id_363>	0
<extra_id_364>	0
<extra_id_365>	0
<extra_id_366>	0
<extra_id_367>	0
<extra_id_368>	0
<extra_id_369>	0
<extra_id_370>	0
<extra_id_371>	0
<extra_id_372>	0
<extra_id_373>	0
<extra_id_374>	0
<extra_id_375>	0
<extra_id_376>	0
<extra_id_377>	0
<extra_id_378>	0
<extra_id_379>	0
<extra_id_380>	0
<extra_id_381>	0
<extra_id_382>	0
<extra_id_383>	0
<extra_id_384>	0
<extra_id_385>	0
<extra_id_386>	0
<extra_id_387>	0
<extra_id_388>	0
<extra_id_389>	0
<extra_id_390>	0
<extra_id_391>	0
<extra_id_392>	0
<extra_id_393>	0
<extra_id_394>	0
<extra_id_395>	0
<extra_id_396>	0
<extra_id_397>	0
<extra_id_398>	0
<extra_id_399>	0
<extra_id_400>	0
<extra_id_401>	0
<extra_id_402>	0
<extra_id_403>	0
<extra_id_404>	0
<extra_id_405>	0
<extra_id_406>	0
<extra_id_407>	0
<extra_id_408>	0
<extra_id_409>	0
<extra_id_410>	0
<extra_id_411>	0
<extra_id_412>	0
<extra_id_413>	0
<extra_id_414>	0
<extra_id_415>	0
<extra_id_416>	0
<extra_id_417>	0
<extra_id_418>	0
<extra_id_419>	0
<extra_id_420>	0
<extra_id_421>	0
<extra_id_422>	0
<extra_id_423>	0
<extra_id_424>	0
<extra_id_425>	0
<extra_id_426>	0
<extra_id_427>	0
<extra_id_428>	0
<extra_id_429>	0
<extra_id_430>	0
<extra_id_431>	0
<extra_id_432>	0
<extra_id_433>	0
<extra_id_434>	0
<extra_id_435>	0
<extra_id_436>	0
<extra_id_437>	0
<extra_id_438>	0
<extra_id_439>	0
<extra_id_440>	0
<extra_id_441>	0
<extra_id_442>	0
<extra_id_443>	0
<extra_id_444>	0
<extra_id_445>	0
<extra_id_446>	0
<extra_id_447>	0
<extra_id_448>	0
<extra_id_449>	0
<extra_id_450>	0
<extra_id_451>	0
<extra_id_452>	0
<extra_id_453>	0
<extra_id_454>	0
<extra_id_455>	0
<extra_id_456>	0
<extra_id_457>	0
<extra_id_458>	0
<extra_id_459>	0
<extra_id_460>	0
<extra_id_461>	0
<extra_id_462>	0
<extra_id_463>	0
<extra_id_464>	0
<extra_id_465>	0
<extra_id_466>	0
<extra_id_467>	0
<extra_id_468>	0
<extra_id_469>	0
<extra_id_470>	0
<extra_id_471>	0
<extra_id_472>	0
<extra_id_473>	0
<extra_id_474>	0
<extra_id_475>	0
<extra_id_476>	0
<extra_id_477>	0
<extra_id_478>	0
<extra_id_479>	0
<extra_id_480>	0
<extra_id_481>	0
<extra_id_482>	0
<extra_id_483>	0
<extra_id_484>	0
<extra_id_485>	0
<extra_id_486>	0
<extra_id_487>	0
<extra_id_488>	0
<extra_id_489>	0
<extra_id_490>	0
<extra_id_491>	0
<extra_id_492>	0
<extra_id_493>	0
<extra_id_494>	0
<extra_id_495>	0
<extra_id_496>	0
<extra_id_497>	0
<extra_id_498>	0
<extra_id_499>	0
<extra_id_500>	0
<extra_id_501>	0
<extra_id_502>	0
<extra_id_503>	0
<extra_id_504>	0
<extra_id_505>	0
<extra_id_506>	0
<extra_id_507>	0
<extra_id_508>	0
<extra_id_509>	0
<extra_id_510>	0
<extra_id_511>	0
<extra_id_512>	0
<extra_id_513>	0
<extra_id_514>	0
<extra_id_515>	0
<extra_id_516>	0
<extra_id_517>	0
<extra_id_518>	0
<extra_id_519>	0
<extra_id_520>	0
<extra_id_521>	0
<extra_id_522>	0
<extra_id_523>	0
<extra_id_524>	0
<extra_id_525>	0
<extra_id_526>	0
<extra_id_527>	0
<extra_id_528>	0
<extra_id_529>	0
<extra_id_530>	0
<extra_id_531>	0
<extra_id_532>	0
<extra_id_533>	0
<extra_id_534>	0
<extra_id_535>	0
<extra_id_536>	0
<extra_id_537>	0
<extra_id_538>	0
<extra_id_539>	0
<extra_id_540>	0
<extra_id_541>	0
<extra_id_542>	0
<extra_id_543>	0
<extra_id_544>	0
<extra_id_545>	0
<extra_id_546>	0
<extra_id_547>	0
<extra_id_548>	0
<extra_id_549>	0
<extra_id_550>	0
<extra_id_551>	0
<extra_id_552>	0
<extra_id_553>	0
<extra_id_554>	0
<extra_id_555>	0
<extra_id_556>	0
<extra_id_557>	0
<extra_id_558>	0
<extra_id_559>	0
<extra_id_560>	0
<extra_id_561>	0
<extra_id_562>	0
<extra_id_563>	0
<extra_id_564>	0
<extra_id_565>	0
<extra_id_566>	0
<extra_id_567>	0
<extra_id_568>	0
<extra_id_569>	0
<extra_id_570>	0
<extra_id_571>	0
<extra_id_572>	0
<extra_id_573>	0
<extra_id_574>	0
<extra_id_575>	0
<extra_id_576>	0
<extra_id_577>	0
<extra_id_578>	0
<extra_id_579>	0
<extra_id_580>	0
<extra_id_581>	0
<extra_id_582>	0
<extra_id_583>	0
<extra_id_584>	0
<extra_id_585>	0
<extra_id_586>	0
<extra_id_587>	0
<extra_id_588>	0
<extra_id_589>	0
<extra_id_590>	0
<extra_id_591>	0
<extra_id_592>	0
<extra_id_593>	0
<extra_id_594>	0
<extra_id_595>	0
<extra_id_596>	0
<extra_id_597>	0
<extra_id_598>	0
<extra_id_599>	0
<extra_id_600>	0
<extra_id_601>	0
<extra_id_602>	0
<extra_id_603>	0
<extra_id_604>	0
<extra_id_605>	0
<extra_id_606>	0
<extra_id_607>	0
<extra_id_608>	0
<extra_id_609>	0
<extra_id_610>	0
<extra_id_611>	0
<extra_id_612>	0
<extra_id_613>	0
<extra_id_614>	0
<extra_id_615>	0
<extra_id_616>	0
<extra_id_617>	0
<extra_id_618>	0
<extra_id_619>	0
<extra_id_620>	0
<extra_id_621>	0
<extra_id_622>	0
<extra_id_623>	0
<extra_id_624>	0
<extra_id_625>	0
<extra_id_626>	0
<extra_id_627>	0
<extra_id_628>	0
<extra_id_629>	0
<extra_id_630>	0
<extra_id_631>	0
<extra_id_632>	0
<extra_id_633>	0
<extra_id_634>	0
<extra_id_635>	0
<extra_id_636>	0
<extra_id_637>	0
<extra_id_638>	0
<extra_id_639>	0
<extra_id_640>	0
<extra_id_641>	0
<extra_id_642>	0
<extra_id_643>	0
<extra_id_644>	0
<extra_id_645>	0
<extra_id_646>	0
<extra_id_647>	0
<extra_id_648>	0
<extra_id_649>	0
<extra_id_650>	0
<extra_id_651>	0
<extra_id_652>	0
<extra_id_653>	0
<extra_id_654>	0
<extra_id_655>	0
<extra_id_656>	0
<extra_id_657>	0
<extra_id_658>	0
<extra_id_659>	0
<extra_id_660>	0
<extra_id_661>	0
<extra_id_662>	0
<extra_id_663>	0
<extra_id_664>	0
<extra_id_665>	0
<extra_id_666>	0
<extra_id_667>	0
<extra_id_668>	0
<extra_id_669>	0
<extra_id_670>	0
<extra_id_671>	0
<extra_id_672>	0
<extra_id_673>	0
<extra_id_674>	0
<extra_id_675>	0
<extra_id_676>	0
<extra_id_677>	0
<extra_id_678>	0
<extra_id_679>	0
<extra_id_680>	0
<extra_id_681>	0
<extra_id_682>	0
<extra_id_683>	0
<extra_id_684>	0
<extra_id_685>	0
<extra_id_686>	0
<extra_id_687>	0
<extra_id_688>	0
<extra_id_689>	0
<extra_id_690>	0
<extra_id_691>	0
<extra_id_692>	0
<extra_id_693>	0
<extra_id_694>	0
<extra_id_695>	0
<extra_id_696>	0
<extra_id_697>	0
<extra_id_698>	0
<extra_id_699>	0
<extra_id_700>	0
<extra_id_701>	0
<extra_id_702>	0
<extra_id_703>	0
<extra_id_704>	0
<extra_id_705>	0
<extra_id_706>	0
<extra_id_707>	0
<extra_id_708>	0
<extra_id_709>	0
<extra_id_710>	0
<extra_id_711>	0
<extra_id_712>	0
<extra_id_713>	0
<extra_id_714>	0
<extra_id_715>	0
<extra_id_716>	0
<extra_id_717>	0
<extra_id_718>	0
<extra_id_719>	0
<extra_id_720>	0
<extra_id_721>	0
<extra_id_722>	0
<extra_id_723>	0
<extra_id_724>	0
<extra_id_725>	0
<extra_id_726>	0
<extra_id_727>	0
<extra_id_728>	0
<extra_id_729>	0
<extra_id_730>	0
<extra_id_731>	0
<extra_id_732>	0
<extra_id_733>	0
<extra_id_734>	0
<extra_id_735>	0
<extra_id_736>	0
<extra_id_737>	0
<extra_id_738>	0
<extra_id_739>	0
<extra_id_740>	0
<extra_id_741>	0
<extra_id_742>	0
<extra_id_743>	0
<extra_id_744>	0
<extra_id_745>	0
<extra_id_746>	0
<extra_id_747>	0
<extra_id_748>	0
<extra_id_749>	0
<extra_id_750>	0
<extra_id_751>	0
<extra_id_752>	0
<extra_id_753>	0
<extra_id_754>	0
<extra_id_755>	0
<extra_id_756>	0
<extra_id_757>	0
<extra_id_758>	0
<extra_id_759>	0
<extra_id_760>	0
<extra_id_761>	0
<extra_id_762>	0
<extra_id_763>	0
<extra_id_764>	0
<extra_id_765>	0
<extra_id_766>	0
<extra_id_767>	0
<extra_id_768>	0
<extra_id_769>	0
<extra_id_770>	0
<extra_id_771>	0
<extra_id_772>	0
<extra_id_773>	0
<extra_id_774>	0
<extra_id_775>	0
<extra_id_776>	0
<extra_id_777>	0
<extra_id_778>	0
<extra_id_779>	0
<extra_id_780>	0
<extra_id_781>	0
<extra_id_782>	0
<extra_id_783>	0
<extra_id_784>	0
<extra_id_785>	0
<extra_id_786>	0
<extra_id_787>	0
<extra_id_788>	0
<extra_id_789>	0
<extra_id_790>	0
<extra_id_791>	0
<extra_id_792>	0
<extra_id_793>	0
<extra_id_794>	0
<extra_id_795>	0
<extra_id_796>	0
<extra_id_797>	0
<extra_id_798>	0
<extra_id_799>	0
<extra_id_800>	0
<extra_id_801>	0
<extra_id_802>	0
<extra_id_803>	0
<extra_id_804>	0
<extra_id_805>	0
<extra_id_806>	0
<extra_id_807>	0
<extra_id_808>	0
<extra_id_809>	0
<extra_id_810>	0
<extra_id_811>	0
<extra_id_812>	0
<extra_id_813>	0
<extra_id_814>	0
<extra_id_815>	0
<extra_id_816>	0
<extra_id_817>	0
<extra_id_818>	0
<extra_id_819>	0
<extra_id_820>	0
<extra_id_821>	0
<extra_id_822>	0
<extra_id_823>	0
<extra_id_824>	0
<extra_id_825>	0
<extra_id_826>	0
<extra_id_827>	0
<extra_id_828>	0
<extra_id_829>	0
<extra_id_830>	0
<extra_id_831>	0
<extra_id_832>	0
<extra_id_833>	0
<extra_id_834>	0
<extra_id_835>	0
<extra_id_836>	0
<extra_id_837>	0
<extra_id_838>	0
<extra_id_839>	0
<extra_id_840>	0
<extra_id_841>	0
<extra_id_842>	0
<extra_id_843>	0
<extra_id_844>	0
<extra_id_845>	0
<extra_id_846>	0
<extra_id_847>	0
<extra_id_848>	0
<extra_id_849>	0
<extra_id_850>	0
<extra_id_851>	0
<extra_id_852>	0
<extra_id_853>	0
<extra_id_854>	0
<extra_id_855>	0
<extra_id_856>	0
<extra_id_857>	0
<extra_id_858>	0
<extra_id_859>	0
<extra_id_860>	0
<extra_id_861>	0
<extra_id_862>	0
<extra_id_863>	0
<extra_id_864>	0
<extra_id_865>	0
<extra_id_866>	0
<extra_id_867>	0
<extra_id_868>	0
<extra_id_869>	0
<extra_id_870>	0
<extra_id_871>	0
<extra_id_872>	0
<extra_id_873>	0
<extra_id_874>	0
<extra_id_875>	0
<extra_id_876>	0
<extra_id_877>	0
<extra_id_878>	0
<extra_id_879>	0
<extra_id_880>	0
<extra_id_881>	0
<extra_id_882>	0
<extra_id_883>	0
<extra_id_884>	0
<extra_id_885>	0
<extra_id_886>	0
<extra_id_887>	0
<extra_id_888>	0
<extra_id_889>	0
<extra_id_890>	0
<extra_id_891>	0
<extra_id_892>	0
<extra_id_893>	0
<extra_id_894>	0
<extra_id_895>	0
<extra_id_896>	0
<extra_id_897>	0
<extra_id_898>	0
<extra_id_899>	0
<extra_id_900>	0
<extra_id_901>	0
<extra_id_902>	0
<extra_id_903>	0
<extra_id_904>	0
<extra_id_905>	0
<extra_id_906>	0
<extra_id_907>	0
<extra_id_908>	0
<extra_id_909>	0
<extra_id_910>	0
<extra_id_911>	0
<extra_id_912>	0
<extra_id_913>	0
<extra_id_914>	0
<extra_id_915>	0
<extra_id_916>	0
<extra_id_917>	0
<extra_id_918>	0
<extra_id_919>	0
<extra_id_920>	0
<extra_id_921>	0
<extra_id_922>	0
<extra_id_923>	0
<extra_id_924>	0
<extra_id_925>	0
<extra_id_926>	0
<extra_id_927>	0
<extra_id_928>	0
<extra_id_929>	0
<extra_id_930>	0
<extra_id_931>	0
<extra_id_932>	0
<extra_id_933>	0
<extra_id_934>	0
<extra_id_935>	0
<extra_id_936>	0
<extra_id_937>	0
<extra_id_938>	0
<extra_id_939>	0
<extra_id_940>	0
<extra_id_941>	0
<extra_id_942>	0
<extra_id_943>	0
<extra_id_944>	0
<extra_id_945>	0
<extra_id_946>	0
<extra_id_947>	0
<extra_id_948>	0
<extra_id_949>	0
<extra_id_950>	0
<extra_id_951>	0
<extra_id_952>	0
<extra_id_953>	0
<extra_id_954>	0
<extra_id_955>	0
<extra_id_956>	0
<extra_id_957>	0
<extra_id_958>	0
<extra_id_959>	0
<extra_id_960>	0
<extra_id_961>	0
<extra_id_962>	0
<extra_id_963>	0
<extra_id_964>	0
<extra_id_965>	0
<extra_id_966>	0
<extra_id_967>	0
<extra_id_968>	0
<extra_id_969>	0
<extra_id_970>	0
<extra_id_971>	0
<extra_id_972>	0
<extra_id_973>	0
<extra_id_974>	0
<extra_id_975>	0
<extra_id_976>	0
<extra_id_977>	0
<extra_id_978>	0
<extra_id_979>	0
<extra_id_980>	0
<extra_id_981>	0
<extra_id_982>	0
<extra_id_983>	0
<extra_id_984>	0
<extra_id_985>	0
<extra_id_986>	0
<extra_id_987>	0
<extra_id_988>	0
<extra_id_989>	0
<extra_id_990>	0
<extra_id_991>	0
<extra_id_992>	0
<extra_id_993>	0
<extra_id_994>	0
<extra_id_995>	0
<extra_id_996>	0
<extra_id_997>	0
<extra_id_998>	0
<extra_id_999>	0
<extra_id_1000>	0
<extra_id_1001>	0
<extra_id_1002>	0
<extra_id_1003>	0
<extra_id_1004>	0
<extra_id_1005>	0
<extra_id_1006>	0
<extra_id_1007>	0
<extra_id_1008>	0
<extra_id_1009>	0
<extra_id_1010>	0
<extra_id_1011>	0
<extra_id_1012>	0
<extra_id_1013>	0
<extra_id_1014>	0
<extra_id_1015>	0
<extra_id_1016>	0
<extra_id_1017>	0
<extra_id_1018>	0
<extra_id_1019>	0
<extra_id_1020>	0
<extra_id_1021>	0
<extra_id_1022>	0
<extra_id_1023>	0
<0x00>	0
<0x01>	0
<0x02>	0
<0x03>	0
<0x04>	0
<0x05>	0
<0x06>	0
<0x07>	0
<0x08>	0
<0x09>	0
<0x0A>	0
<0x0B>	0
<0x0C>	0
<0x0D>	0
<0x0E>	0
<0x0F>	0
<0x10>	0
<0x11>	0
<0x12>	0
<0x13>	0
<0x14>	0
<0x15>	0
<0x16>	0
<0x17>	0
<0x18>	0
<0x19>	0
<0x1A>	0
<0x1B>	0
<0x1C>	0
<0x1D>	0
<0x1E>	0
<0x1F>	0
<0x20>	0
<0x21>	0
<0x22>	0
<0x23>	0
<0x24>	0
<0x25>	0
<0x26>	0
<0x27>	0
<0x28>	0
<0x29>	0
<0x2A>	0
<0x2B>	0
<0x2C>	0
<0x2D>	0
<0x2E>	0
<0x2F>	0
<0x30>	0
<0x31>	0
<0x32>	0
<0x33>	0
<0x34>	0
<0x35>	0
<0x36>	0
<0x37>	0
<0x38>	0
<0x39>	0
<0x3A>	0
<0x3B>	0
<0x3C>	0
<0x3D>	0
<0x3E>	0
<0x3F>	0
<0x40>	0
<0x41>	0
<0x42>	0
<0x43>	0
<0x44>	0
<0x45>	0
<0x46>	0
<0x47>	0
<0x48>	0
<0x49>	0
<0x4A>	0
<0x4B>	0
<0x4C>	0
<0x4D>	0
<0x4E>	0
<0x4F>	0
<0x50>	0
<0x51>	0
<0x52>	0
<0x53>	0
<0x54>	0
<0x55>	0
<0x56>	0
<0x57>	0
<0x58>	0
<0x59>	0
<0x5A>	0
<0x5B>	0
<0x5C>	0
<0x5D>	0
<0x5E>	0
<0x5F>	0
<0x60>	0
<0x61>	0
<0x62>	0
<0x63>	0
<0x64>	0
<0x65>	0
<0x66>	0
<0x67>	0
<0x68>	0
<0x69>	0
<0x6A>	0
<0x6B>	0
<0x6C>	0
<0x6D>	0
<0x6E>	0
<0x6F>	0
<0x70>	0
<0x71>	0
<0x72>	0
<0x73>	0
<0x74>	0
<0x75>	0
<0x76>	0
<0x77>	0
<0x78>	0
<0x79>	0
<0x7A>	0
<0x7B>	0
<0x7C>	0
<0x7D>	0
<0x7E>	0
<0x7F>	0
<0x80>	0
<0x81>	0
<0x82>	0
<0x83>	0
<0x84>	0
<0x85>	0
<0x86>	0
<0x87>	0
<0x88>	0
<0x89>	0
<0x8A>	0
<0x8B>	0
<0x8C>	0
<0x8D>	0
<0x8E>	0
<0x8F>	0
<0x90>	0
<0x91>	0
<0x92>	0
<0x93>	0
<0x94>	0
<0x95>	0
<0x96>	0
<0x97>	0
<0x98>	0
<0x99>	0
<0x9A>	0
<0x9B>	0
<0x9C>	0
<0x9D>	0
<0x9E>	0
<0x9F>	0
<0xA0>	0
<0xA1>	0
<0xA2>	0
<0xA3>	0
<0xA4>	0
<0xA5>	0
<0xA6>	0
<0xA7>	0
<0xA8>	0
<0xA9>	0
<0xAA>	0
<0xAB>	0
<0xAC>	0
<0xAD>	0
<0xAE>	0
<0xAF>	0
<0xB0>	0
<0xB1>	0
<0xB2>	0
<0xB3>	0
<0xB4>	0
<0xB5>	0
<0xB6>	0
<0xB7>	0
<0xB8>	0
<0xB9>	0
<0xBA>	0
<0xBB>	0
<0xBC>	0
<0xBD>	0
<0xBE>	0
<0xBF>	0
<0xC0>	0
<0xC1>	0
<0xC2>	0
<0xC3>	0
<0xC4>	0
<0xC5>	0
<0xC6>	0
<0xC7>	0
<0xC8>	0
<0xC9>	0
<0xCA>	0
<0xCB>	0
<0xCC>	0
<0xCD>	0
<0xCE>	0
<0xCF>	0
<0xD0>	0
<0xD1>	0
<0xD2>	0
<0xD3>	0
<0xD4>	0
<0xD5>	0
<0xD6>	0
<0xD7>	0
<0xD8>	0
<0xD9>	0
<0xDA>	0
<0xDB>	0
<0xDC>	0
<0xDD>	0
<0xDE>	0
<0xDF>	0
<0xE0>	0
<0xE1>	0
<0xE2>	0
<0xE3>	0
<0xE4>	0
<0xE5>	0
<0xE6>	0
<0xE7>	0
<0xE8>	0
<0xE9>	0
<0xEA>	0
<0xEB>	0
<0xEC>	0
<0xED>	0
<0xEE>	0
<0xEF>	0
<0xF0>	0
<0xF1>	0
<0xF2>	0
<0xF3>	0
<0xF4>	0
<0xF5>	0
<0xF6>	0
<0xF7>	0
<0xF8>	0
<0xF9>	0
<0xFA>	0
<0xFB>	0
<0xFC>	0
<0xFD>	0
<0xFE>	0
<0xFF>	0
▁	-2.34308
의	-3.93759
에	-4.34567
을	-4.45075
이	-4.45814
)	-4.52021
(	-4.52671
는	-4.85039
를	-4.91259
은	-4.91558
가	-4.95674
한	-4.9788
.	-5.17916
。	-5.24416
」	-5.25377
「	-5.25583
도	-5.4037
로	-5.45525
일	-5.46507
,	-5.49852
、	-5.507
고	-5.58073
으로	-5.63342
에서	-5.6541
과	-5.6556
『	-5.69639
』	-5.71211
하고	-5.79728
하야	-5.80082
인	-5.91107
와	-6.01522
·	-6.02557
하는	-6.04946
서	-6.22863
지	-6.25336
시	-6.31658
만	-6.41426
▁그	-6.45339
등	-6.46065
할	-6.47448
사	-6.48703
대	-6.50474
기	-6.51139
하여	-6.53075
동	-6.56421
▲	-6.61847
자	-6.6227
다	-6.62762
히	-6.63077
리	-6.655
▁【	-6.68274
전	-6.69936
】	-6.7158
수	-6.72571
나	-6.73971
▁▲	-6.75595
된	-6.77863
▁이	-6.78146
백	-6.80363
해	-6.80568
=	-6.81649
구	-6.85071
중	-6.88438
적	-6.9225
○	-6.923
원	-6.92558
一	-6.93571
에는	-6.96167
정	-6.96524
오	-6.9769
면	-6.98567
그	-6.98638
에서는	-6.99706
부	-6.99835
주	-7.0106
상	-7.01725
—	-7.02168
장	-7.02783
진	-7.05042
천	-7.05958
하	-7.06022
군	-7.08077
제	-7.0824
년	-7.09342
까지	-7.09782
회	-7.0979
한다	-7.10653
월	-7.10781
명	-7.11496
이다	-7.13775
씨	-7.14104
호	-7.14189
|	-7.14521
선	-7.15684
소	-7.16266
어	-7.16544
1	-7.17464
게	-7.20324
성	-7.21147
‖	-7.21322
미	-7.21601
▁◇	-7.22129
에게	-7.22745
삼	-7.23882
조	-7.24383
신	-7.25555
했다	-7.25836
분	-7.28577
화	-7.28605
부터	-7.28919
中	-7.30785
아	-7.30899
三	-7.30965
우	-7.33114
및	-7.33788
2	-7.33831
하였다	-7.34367
▁일	-7.35712
개	-7.37706
야	-7.38554
對	-7.38792
二	-7.38866
안	-7.39183
▁있다	-7.3972
차	-7.40189
氏	-7.40815
라	-7.41284
세	-7.41704
이나	-7.43436
여	-7.4448
산	-7.447
하게	-7.44776
▁1	-7.45284
비	-7.45575
□	-7.4678
보	-7.47049
치	-7.47426
당	-7.47952
하면	-7.48231
급	-7.49615
3	-7.49987
경	-7.51375
▁一	-7.53386
的	-7.53532
金	-7.53807
▁그러나	-7.53997
하며	-7.54444
스	-7.54472
되는	-7.55938
무	-7.56257
석	-7.56905
문	-7.5734
식	-7.57902
▁동	-7.57916
들이	-7.58066
내	-7.6294
단	-7.62983
들	-7.63556
함	-7.63587
▁또	-7.639
관	-7.63921
▁수	-7.64025
영	-7.64243
이라고	-7.64321
후	-7.64381
모	-7.64417
▁2	-7.65343
五	-7.66331
者	-7.66973
김	-7.68432
大	-7.68528
국	-7.68534
재	-7.68541
되어	-7.6858
간	-7.69396
▁지난	-7.69892
유	-7.70083
日	-7.7029
들은	-7.70594
두	-7.73224
양	-7.73287
5	-7.7369
씨는	-7.73991
강	-7.74143
▁3	-7.74517
불	-7.75916
마	-7.76583
四	-7.7817
위	-7.78388
용	-7.78911
▁제	-7.80676
남	-7.80901
말	-7.81158
4	-7.81423
▁있는	-7.82523
종	-7.82528
현	-7.84609
?	-7.84647
에대한	-7.84689
연	-7.85649
초	-7.85741
반	-7.85915
거	-7.86304
계	-7.86722
人	-7.87104
기자	-7.88465
問題	-7.89726
칠	-7.9058
각	-7.90942
△	-7.91077
파	-7.91388
적인	-7.92548
발	-7.92856
며	-7.9386
라고	-7.9458
니	-7.9465
매	-7.95247
외	-7.95954
팔	-7.96178
▁대한	-7.96555
바	-7.96555
공	-7.96586
점	-7.96782
하다	-7.96865
박	-7.96901
보다	-7.97862
同	-7.98026
교	-7.99158
되고	-7.99224
▁서울	-7.99526
하엿다	-7.99597
들의	-7.99615
▁김	-8.00072
하기	-8.00114
等	-8.00331
육	-8.00764
승	-8.00845
▁사	-8.01382
▁전	-8.0151
後	-8.01785
요	-8.0199
케	-8.0201
"	-8.02085
六	-8.02152
▁金	-8.02294
6	-8.03816
방	-8.04373
드	-8.04485
병	-8.04659
본	-8.04879
건	-8.04892
환	-8.05114
저	-8.05499
량	-8.06254
▁이날	-8.06264
금	-8.06359
실	-8.06787
)▲	-8.0695
근	-8.07582
에도	-8.0808
八	-8.08112
七	-8.0863
권	-8.0892
태	-8.08935
九	-8.09062
창	-8.09329
류	-8.09426
될	-8.09691
순	-8.10972
▁한국	-8.11219
이며	-8.11672
란	-8.12566
〃	-8.12759
봉	-8.13001
트	-8.1304
▁4	-8.13938
청	-8.13972
로부터	-8.14058
배	-8.14483
타	-8.14602
〇	-8.14777
으로부터	-8.15017
서울	-8.15758
행	-8.16418
약	-8.1662
코	-8.16706
▁것이다	-8.17771
감	-8.17837
는데	-8.18735
▁5	-8.18794
7	-8.1893
軍	-8.19285
해서	-8.19527
依	-8.19837
上	-8.19962
라는	-8.21216
▁오	-8.21362
형	-8.21644
李	-8.21834
씨의	-8.21837
이라	-8.22029
▁정	-8.22413
학	-8.225
이라는	-8.22619
하기로	-8.22719
10	-8.23532
會	-8.2362
○○	-8.24139
준	-8.24642
운	-8.24813
령	-8.25065
國	-8.25144
포	-8.25155
...	-8.25542
난	-8.25637
▁삼	-8.25938
심	-8.2613
노	-8.26642
로서	-8.26865
8	-8.26988
생	-8.27452
희	-8.27693
▁그리고	-8.2777
▁대	-8.27962
山	-8.28191
질	-8.28589
하나	-8.28895
▁미	-8.29123
面	-8.29235
있는	-8.293
역	-8.29979
爲	-8.29992
關	-8.30406
루	-8.30564
적으로	-8.30594
민	-8.30785
▁〈	-8.31506
高	-8.31686
철	-8.31737
긔	-8.31802
온	-8.31932
길	-8.31946
법	-8.31969
한국	-8.32372
▁말	-8.32679
조선	-8.32706
물	-8.3288
▁李	-8.33023
옥	-8.33133
복	-8.33255
9	-8.33802
되었다	-8.34507
작	-8.34538
데	-8.34755
일본	-8.34975
인데	-8.35202
▁이번	-8.35748
직	-8.36364
▁同	-8.36429
이란	-8.36536
〉	-8.36641
▁다시	-8.3679
▁우리	-8.37071
%	-8.37234
통	-8.38388
된다	-8.3862
피	-8.38803
려	-8.3923
▁신	-8.39331
-	-8.40326
임	-8.40576
등을	-8.40838
씨가	-8.41777
▁리	-8.42102
림	-8.42881
>	-8.43105
▁말했다	-8.43201
▁그런데	-8.4334
광	-8.43538
하는데	-8.43559
키	-8.43631
하지	-8.43811
설	-8.44411
대표	-8.4484
하면서	-8.44843
열	-8.45093
下	-8.45328
송	-8.45421
들을	-8.45614
政府	-8.45736
長	-8.45744
及	-8.45875
입	-8.46012
래	-8.46115
▁안	-8.46182
▁二	-8.46345
하고있다	-8.46874
한바	-8.47037
덕	-8.47134
▁일본	-8.47595
新	-8.47927
間	-8.48176
의원	-8.48242
일부터	-8.48337
郡	-8.48344
法	-8.48348
유엔	-8.4838
르	-8.49084
前	-8.49126
때	-8.49139
목	-8.49286
총	-8.49681
▁오는	-8.49905
체	-8.50271
內	-8.50695
집	-8.51311
날	-8.51548
▁三	-8.51742
것	-8.52487
▁또한	-8.52651
▁<	-8.53245
홍	-8.5332
증	-8.53437
文	-8.5345
토	-8.53517
▁한편	-8.53705
대로	-8.53709
평	-8.54332
면서	-8.5444
▁6	-8.54517
편	-8.54994
▁것으로	-8.55105
▁가장	-8.55199
▁그는	-8.55352
○|	-8.55473
▁10	-8.55535
外	-8.55903
部	-8.55921
더	-8.55923
달	-8.56103
▁내	-8.56116
것은	-8.5618
린	-8.56543
또	-8.56885
레	-8.57195
판	-8.57217
크	-8.57477
것이다	-8.57724
日本	-8.5774
처	-8.58419
별	-8.58509
든	-8.58561
엔	-8.58642
此	-8.58745
락	-8.58777
▁각	-8.58993
▁것	-8.59242
할수	-8.59312
戰	-8.59871
▁구	-8.59895
규	-8.60101
▁것은	-8.60124
으로서	-8.60128
▁큰	-8.60581
30	-8.60703
항	-8.60826
것이	-8.60936
洞	-8.61098
▁이를	-8.61478
里	-8.61625
억	-8.62012
던	-8.62022
▁한다	-8.62337
키로	-8.62521
출	-8.62546
채	-8.62549
룡	-8.62631
▁장	-8.62656
에대하야	-8.62683
▁조	-8.629
の	-8.62914
美	-8.62969
곡	-8.63143
이오	-8.63168
속	-8.63191
點	-8.6376
東	-8.63819
디	-8.64013
▁현재	-8.6403
▁이미	-8.64047
▁소	-8.64213
카	-8.64345
道	-8.6437
변	-8.64383
ap	-8.64615
▁조선	-8.64819
朝鮮	-8.65039
▁더	-8.65071
年	-8.65272
시간	-8.65306
▁이러한	-8.65443
朴	-8.65801
時	-8.66117
잇는	-8.66122
터	-8.66165
▁두	-8.66666
▁것이	-8.6668
會議	-8.66821
有	-8.66881
m	-8.66998
▁7	-8.67073
側	-8.67172
▁불	-8.67222
이상	-8.67595
조사	-8.67664
▁다	-8.67683
行	-8.67828
로써	-8.6803
▁박	-8.68089
生	-8.68114
네	-8.68693
번	-8.69174
▁모두	-8.69223
▁유	-8.69303
업	-8.69304
」「	-8.69839
하얏다	-8.69847
손	-8.69869
無	-8.69963
십	-8.70073
한후	-8.70109
황	-8.70199
론	-8.70377
범	-8.70424
최	-8.70548
갑	-8.70693
애	-8.70889
러	-8.71008
▁그의	-8.71012
▁주	-8.71267
▁미국	-8.71549
풍	-8.7176
탄	-8.71921
표	-8.72099
결정	-8.72523
分	-8.72862
化	-8.73173
경성	-8.73244
취	-8.73326
할것	-8.73758
절	-8.74078
地	-8.74214
향	-8.74349
田	-8.74421
石	-8.74798
▁특히	-8.74851
교육	-8.74989
▁없다	-8.75309
▁무	-8.7564
▁약	-8.75659
사건	-8.75682
견	-8.75834
경제	-8.76013
지난	-8.76179
윤	-8.76253
언	-8.76496
명의	-8.76587
하고있는	-8.76594
20	-8.76657
학교	-8.76904
▁보	-8.76944
녀	-8.77079
▁위해	-8.77091
不	-8.7734
없이	-8.77573
련	-8.77944
▁최근	-8.78061
▁못	-8.78113
▁비	-8.78264
案	-8.78331
11	-8.78511
性	-8.78683
하니	-8.78789
팀	-8.78801
우리	-8.78913
듯	-8.78946
▁계속	-8.7912
發	-8.79586
▁오후	-8.79751
함으로	-8.79784
담	-8.7992
▁최	-8.79981
事	-8.79995
명을	-8.80069
되	-8.80161
보고	-8.80218
숙	-8.80729
▁기	-8.80921
었다	-8.81065
權	-8.81302
추	-8.81536
名	-8.8164
水	-8.8174
數	-8.81816
▁더욱	-8.81843
關係	-8.82078
하도록	-8.82111
것을	-8.82553
▁日本	-8.82816
期	-8.82967
대회	-8.83082
子	-8.83172
▁생각	-8.83242
各	-8.83447
▁8	-8.84139
南	-8.84228
뎡	-8.84361
왕	-8.84516
암	-8.84936
춘	-8.84991
택	-8.85004
관계	-8.8501
명이	-8.85304
▁강	-8.85305
례	-8.85363
력	-8.85499
있다	-8.8553
주의	-8.85595
이고	-8.85759
▁모든	-8.85805
에서도	-8.85942
學	-8.86061
함을	-8.86277
자가	-8.86373
운동	-8.86561
허	-8.86598
기를	-8.86625
萬	-8.86709
음	-8.86944
등의	-8.86956
▁다른	-8.87079
成	-8.87129
망	-8.87348
회장	-8.87449
돼	-8.87671
고있다	-8.87755
즉	-8.8786
자는	-8.87882
프	-8.88019
살	-8.88138
예	-8.88351
韓	-8.88733
’	-8.88764
회의	-8.88775
동경	-8.88956
에잇는	-8.89107
本	-8.89276
들에게	-8.89537
!	-8.89777
또는	-8.89805
착	-8.89931
해야	-8.89967
▁부	-8.90074
문젯	-8.90254
극	-8.90659
패	-8.90791
十	-8.9092
▁우리는	-8.91232
필	-8.91334
▁재	-8.91343
북	-8.91376
합	-8.91451
으로써	-8.91539
알	-8.91687
元	-8.91688
에관한	-8.9194
익	-8.9196
다시	-8.92309
12	-8.92946
米	-8.92947
발표	-8.93137
相	-8.93228
했던	-8.93554
한다는	-8.93556
지는	-8.93666
부산	-8.93739
색	-8.94083
在	-8.94146
다가	-8.94154
찬	-8.94199
측	-8.94253
중에	-8.94293
▁대해	-8.94307
來	-8.94349
▁美國	-8.94358
▁朴	-8.94963
龍	-8.95104
것으로	-8.95157
까	-8.95433
으	-8.95627
市	-8.95633
척	-8.95645
촌	-8.95798
교수	-8.95902
만원	-8.95957
々	-8.96133
開催	-8.96165
明	-8.96196
정부	-8.96259
친	-8.96302
귀	-8.96324
基	-8.96452
일까지	-8.96657
이니	-8.9671
사회	-8.96741
품	-8.96756
한다고	-8.96858
代表	-8.97258
함은	-8.97293
安	-8.97303
없는	-8.97439
▁당	-8.97747
▁경우	-8.97842
▁남	-8.97955
씨를	-8.97971
▁美	-8.98011
民	-8.98093
▁오전	-8.9822
▁밝혔다	-8.9837
出	-8.984
관리	-8.98696
▁함께	-8.98855
▁韓國	-8.99051
”	-8.99252
▁일반	-8.99378
▁잘	-8.99379
현재	-8.99383
독	-8.99432
▁四	-8.99771
▁또는	-9.00113
永	-9.00323
오는	-9.00326
黨	-9.00361
▁모	-9.00428
쓰	-9.00436
계획	-9.00438
▁이에	-9.00518
한것은	-9.00554
全	-9.00582
새	-9.00673
됐다	-9.00834
돈	-9.00883
일반	-9.00937
대학	-9.01003
▁9	-9.01081
막	-9.01135
갈	-9.01221
산업	-9.01271
件	-9.01333
지방	-9.01335
간의	-9.01357
하자	-9.01527
격	-9.01716
50	-9.01888
所	-9.02062
▁연	-9.02287
京城	-9.0249
등이	-9.02676
▁아	-9.02871
力	-9.03297
計劃	-9.03323
運動	-9.0341
當	-9.03619
▁따라서	-9.03735
▁정부	-9.03831
세계	-9.03841
▁따라	-9.03862
선거	-9.03929
올	-9.03985
崔	-9.04019
▁위한	-9.04028
▁즉	-9.04117
▁없는	-9.04127
하엿는데	-9.04179
植	-9.04207
함으로써	-9.04317
結果	-9.04408
如	-9.04851
月	-9.04924
일오후	-9.04984
문제	-9.05228
線	-9.05395
社	-9.05558
뒤	-9.05695
기타	-9.05731
▁새로운	-9.05789
事件	-9.0609
충	-9.06362
▁20	-9.06404
▁국제	-9.06447
正	-9.0646
섭	-9.06744
울	-9.06794
득	-9.06995
▁많은	-9.07196
학생	-9.07447
▁세계	-9.07517
通	-9.07521
사업	-9.07607
德	-9.0794
연합	-9.07968
小	-9.08304
처럼	-9.08363
할것이다	-9.08428
하는것이	-9.08558
줄	-9.08573
하다가	-9.08582
생각	-9.08662
층	-9.08711
립	-9.08739
회사	-9.08776
▁아니라	-9.08816
决定	-9.08836
정치	-9.08961
家	-9.09066
海	-9.0907
式	-9.09105
▁시내	-9.09188
은행	-9.09201
議員	-9.09246
▁저	-9.094
악	-9.09436
東京	-9.09457
▁통해	-9.09583
用	-9.09653
▁경제	-9.09939
▁우	-9.10113
미국	-9.1034
결	-9.10519
▁정치	-9.1055
훈	-9.10561
책	-9.10703
도록	-9.10707
其	-9.10771
大統領	-9.10837
▁五	-9.10894
15	-9.11082
物	-9.11139
계속	-9.1123
할것을	-9.11264
참	-9.115
조직	-9.11653
되야	-9.11765
지도	-9.12009
▁결정	-9.12062
以上	-9.1209
大會	-9.12107
경기	-9.12145
흥	-9.12217
▁각각	-9.12275
합동	-9.12346
▁물론	-9.1237
入	-9.12415
중앙	-9.12434
▁중국	-9.12455
委員會	-9.12534
書	-9.12602
단체	-9.12609
▁팔	-9.12695
연구	-9.12757
野	-9.13072
▁말하였다	-9.13276
중국	-9.13349
위원	-9.13377
큰	-9.13505
▁아직	-9.13778
되여	-9.13778
워	-9.13823
곳	-9.13909
지역	-9.13947
하던	-9.13954
간에	-9.1412
렬	-9.14205
못	-9.14236
랑	-9.14521
▁금	-9.14685
하든	-9.14687
들어	-9.14687
▁◆	-9.14804
부장	-9.14917
▁이런	-9.15004
겨	-9.15222
▁앞으로	-9.15267
英	-9.15421
건설	-9.15561
죽	-9.15637
조합	-9.15697
發表	-9.15856
論	-9.15874
일오전	-9.15909
達	-9.15915
▁작년	-9.15929
鄭	-9.15976
이었다	-9.15988
▁전기	-9.16078
대통령	-9.1614
▁어떤	-9.16177
▁전국	-9.16792
▁것을	-9.16831
」(	-9.1688
▁〇	-9.16961
읍	-9.17016
대구	-9.17082
▁새	-9.17166
白	-9.17264
문화	-9.17314
농	-9.17489
군의	-9.17512
▁어느	-9.17534
공사	-9.17589
地方	-9.17647
기로	-9.17693
t	-9.17704
버	-9.17728
국제	-9.17831
위원장	-9.17931
▁이제	-9.17998
투	-9.18018
善	-9.18197
시장	-9.18202
밤	-9.18302
실시	-9.18546
골	-9.18982
▁이것은	-9.19074
하려는	-9.1928
유지	-9.19362
협회	-9.19384
씩	-9.1992
전에	-9.20261
▁같은	-9.20285
信	-9.20385
▁朝鮮	-9.20454
官	-9.20454
헌	-9.20577
에셔	-9.20861
져	-9.20896
▁여	-9.21171
根	-9.21218
▁달	-9.21253
하는것은	-9.21463
▁선	-9.21467
같은	-9.21525
員	-9.21544
派	-9.21887
셔	-9.21929
▁12	-9.22093
에있는	-9.22126
▁지금	-9.22151
林	-9.22258
に	-9.22289
너	-9.22298
▁경	-9.22326
인천	-9.22352
서는	-9.22528
즈	-9.22598
▁일부	-9.22618
作	-9.22645
빈	-9.22653
町	-9.229
티	-9.22973
韓國	-9.22977
▁19	-9.23499
團	-9.23502
함이	-9.23551
機	-9.23632
료	-9.23637
▁對	-9.2381
▁중	-9.23995
술	-9.24183
자를	-9.24273
평양	-9.24289
▁이같은	-9.24293
▁총	-9.24304
▁보고	-9.24307
▁△	-9.24357
光	-9.24479
장을	-9.24756
▁크게	-9.24832
▁우리의	-9.24886
하는바	-9.24966
▁세	-9.2499
시켜	-9.2513
▁아니	-9.25229
張	-9.2527
百	-9.25332
좌	-9.2536
▁국내	-9.25508
수입	-9.25539
▁나는	-9.25554
되면	-9.25842
개발	-9.25861
그리고	-9.26219
昌	-9.26289
▁반	-9.26318
首相	-9.26344
가장	-9.26374
▁"	-9.26427
▁▼	-9.26464
▁발표	-9.266
▁육	-9.26603
정책	-9.26733
라도	-9.26851
시내	-9.26889
北	-9.26894
가지고	-9.26942
▁본	-9.26992
하라	-9.27036
▁공	-9.2712
대통령은	-9.27136
▁피	-9.2722
지를	-9.27334
▁政府	-9.27368
입니다	-9.27451
점을	-9.27517
▁全	-9.27536
洙	-9.27569
玉	-9.27836
지만	-9.27883
商	-9.27966
는것은	-9.28041
吉	-9.28201
했다고	-9.28211
는것이	-9.28235
중인	-9.283
委員	-9.28452
군은	-9.28748
에따라	-9.28887
▁원	-9.29126
君	-9.29163
開	-9.29431
心	-9.29444
川	-9.2946
만큼	-9.29494
仁	-9.29587
政策	-9.29677
▁양	-9.29687
습	-9.29693
수출	-9.29785
號	-9.29865
성을	-9.29888
聯合	-9.29921
자금	-9.30003
염	-9.30228
資金	-9.3024
天	-9.30351
사장	-9.30433
▁국민	-9.30471
▁관련	-9.30542
a	-9.30553
기도	-9.30585
島	-9.30651
▁산	-9.30709
▁열	-9.30768
▁이어	-9.3081
組織	-9.3082
▁蘇聯	-9.31008
때문에	-9.31043
▁영	-9.31245
완	-9.31252
煥	-9.31285
웅	-9.31495
압	-9.31541
효	-9.31631
부인	-9.31637
걸	-9.31642
하고잇다	-9.3168
이후	-9.31714
品	-9.31769
政	-9.31785
學校	-9.31786
했으나	-9.31942
▁11	-9.31976
속에	-9.32147
신문	-9.32293
合	-9.32404
침	-9.32478
經濟	-9.32527
泰	-9.32539
씨와	-9.32606
고있는	-9.32635
春	-9.3264
이래	-9.32714
톤	-9.32738
쳐	-9.3283
검사	-9.32945
사용	-9.33017
制	-9.33094
궁	-9.33245
實	-9.33266
나는	-9.33502
아니	-9.33546
혼	-9.3358
이번	-9.33583
合同	-9.33672
과장	-9.33682
▁입	-9.33697
兩	-9.33832
축	-9.33897
▁차	-9.33909
공장	-9.33913
요구	-9.33986
事業	-9.33997
鎭	-9.34
과의	-9.34073
인가	-9.34141
別	-9.34477
城	-9.34581
▁문	-9.34616
함에	-9.34675
년도	-9.34725
▁첫	-9.34753
▁상	-9.34885
順	-9.35093
費	-9.35245
들과	-9.3527
▁단	-9.35354
局	-9.35423
청년	-9.35453
▁그동안	-9.35455
19	-9.35476
▁거의	-9.35598
여자	-9.3563
밀	-9.35678
공업	-9.35701
국민	-9.35736
동안	-9.35782
14	-9.3588
한다면	-9.35901
□□	-9.36184
대한	-9.36267
하였는데	-9.36525
잘	-9.36705
▁사회	-9.37154
錫	-9.37287
13	-9.37404
워싱톤	-9.37441
▁그것은	-9.37445
록	-9.3748
榮	-9.37495
답	-9.37568
일이	-9.37658
▁그들의	-9.37834
重	-9.3785
銀行	-9.37949
電	-9.38062
한것이	-9.38111
메	-9.38211
其他	-9.38224
그러나	-9.3828
】「	-9.38301
▁작	-9.38445
더욱	-9.38539
▁30	-9.38543
정보	-9.38651
一般	-9.38706
한것	-9.38804
개최	-9.38805
▁崔	-9.38856
에대하여	-9.38925
西	-9.39117
동양	-9.39178
자유	-9.3937
半	-9.39712
▁주장	-9.39846
페	-9.39921
定	-9.40034
社會	-9.40339
▁성	-9.40342
必要	-9.40363
▁|	-9.40394
公	-9.40471
십일	-9.40563
▁하	-9.40614
▁大	-9.40645
족	-9.40784
볼	-9.4084
륙	-9.40892
▁실시	-9.40919
40	-9.40981
내지	-9.40983
事實	-9.41072
女	-9.41138
모든	-9.41173
額	-9.41333
當局	-9.41381
▁시작	-9.41445
수가	-9.41523
되엇다	-9.41528
賣	-9.41612
會談	-9.41628
영화	-9.41649
한결과	-9.41744
반대	-9.41803
▁조사	-9.41963
브	-9.42061
당시	-9.42128
임으로	-9.4278
次	-9.42837
액	-9.42971
▁사용	-9.43062
c	-9.43108
테	-9.43244
▁개최	-9.43263
▁부산	-9.43282
會社	-9.43371
되지	-9.4351
說	-9.43511
사진	-9.43553
토록	-9.43567
〇〇	-9.43591
▁물	-9.43705
增加	-9.4371
였다	-9.43739
위원회	-9.43847
국가	-9.44094
原	-9.44179
이요	-9.44245
최근	-9.44276
혀	-9.4435
25	-9.44357
인지	-9.4436
“	-9.44368
▁어	-9.44406
하려고	-9.44547
생활	-9.44645
▁이것을	-9.44703
에의하야	-9.44751
美國	-9.44956
量	-9.4496
경찰서	-9.44985
▁그대로	-9.45067
▁이들	-9.45158
엇다	-9.452
報	-9.45262
^	-9.45419
병원	-9.4552
▁그런	-9.45681
▁거	-9.45684
▁鄭	-9.4587
▁있다고	-9.45883
得	-9.45893
대신	-9.45901
전기	-9.4596
방송	-9.4611
밖에	-9.4616
熙	-9.46183
▁있을	-9.46303
돌	-9.46337
푸	-9.4656
발전	-9.46603
▁六	-9.46834
▁배	-9.4688
국장	-9.4695
▁손	-9.46961
일밤	-9.47057
▁바	-9.47197
選擧	-9.47256
▁매	-9.47463
◇	-9.47551
대사	-9.47561
일하오	-9.47569
▁우선	-9.47605
▁이는	-9.47611
興	-9.47651
▁新	-9.47673
생산	-9.477
▁알	-9.47719
되고있다	-9.47755
제일	-9.4779
州	-9.47838
협	-9.48071
▁15	-9.48107
시설	-9.48125
존	-9.48244
자의	-9.48366
18	-9.48376
뎐	-9.48382
義	-9.48408
만을	-9.48571
生活	-9.48586
▁황	-9.48606
16	-9.48676
다른	-9.48807
시경	-9.48831
으로는	-9.48886
하다고	-9.48891
取	-9.48914
사람이	-9.48955
體	-9.48995
사상	-9.49022
命	-9.49095
同時	-9.49103
▁현	-9.49127
▁마	-9.49151
比	-9.49195
보도	-9.49256
去	-9.49258
보면	-9.4933
進	-9.49359
수는	-9.49434
世	-9.49672
수상	-9.49713
접	-9.49743
사는	-9.49749
▁선거	-9.49765
河	-9.49795
명은	-9.50019
차관	-9.50053
곤	-9.50075
▁가지고	-9.50178
기술	-9.50226
겸	-9.50234
調査	-9.5038
한것이다	-9.50384
總	-9.5043
했으며	-9.50799
런던	-9.50805
共	-9.50978
만은	-9.51054
연맹	-9.51102
이날	-9.51117
하엿스나	-9.51203
塲	-9.51296
잇다	-9.51327
主	-9.51342
했고	-9.51379
만이	-9.5146
가운데	-9.51516
村	-9.51527
▁경성	-9.51581
해온	-9.51608
벌	-9.51619
▁발	-9.518
응	-9.52143
상의	-9.52167
因	-9.52214
▁뒤	-9.52298
는것이다	-9.52329
파리	-9.52404
활동	-9.52441
더라	-9.52644
이사	-9.52672
증가	-9.52731
하겠다	-9.52802
國家	-9.52832
폭	-9.5291
하기를	-9.52937
폐	-9.52983
▁방	-9.53024
業	-9.53045
王	-9.53059
설치	-9.53137
江	-9.53217
狀態	-9.53366
정리	-9.53381
본부	-9.53456
협의	-9.53472
무역	-9.53543
억원	-9.53619
福	-9.53695
特	-9.53765
주장	-9.53827
아래	-9.5386
삼일	-9.53885
특히	-9.53932
할수있는	-9.53968
▁중앙	-9.54043
한데	-9.54086
敎	-9.54116
然	-9.54129
으나	-9.54268
自	-9.54275
‘	-9.54371
갓	-9.54377
준비	-9.54382
敎育	-9.54544
▁소련	-9.54574
차를	-9.54832
0	-9.54861
松	-9.54886
立	-9.54919
보다도	-9.54958
지원	-9.55022
원을	-9.55079
難	-9.55085
합니다	-9.55182
中國	-9.55268
▁자기	-9.55321
▁국회	-9.5538
등으로	-9.55406
▁요구	-9.55629
▁곧	-9.55761
엄	-9.55815
또한	-9.55942
▁韓	-9.55972
개정	-9.55982
感	-9.56129
▁어떻게	-9.56157
측의	-9.56178
和	-9.56477
행정	-9.5656
하얏더라	-9.56637
態度	-9.5667
것이라고	-9.5691
처리	-9.56919
~	-9.56938
회담	-9.56979
▁역시	-9.56994
afp	-9.57055
금지	-9.57104
도로	-9.57549
지구	-9.57636
천원	-9.57742
조정	-9.57782
▁초	-9.5782
으며	-9.57874
回	-9.57894
지고	-9.57919
を	-9.57934
協定	-9.57961
▁먼저	-9.57994
甲	-9.58068
맥	-9.58118
대전	-9.58217
17	-9.58422
又	-9.58475
氣	-9.58601
隊	-9.58623
▁관한	-9.58698
강화	-9.58805
兵	-9.58887
▁있어	-9.58915
木	-9.58982
수사	-9.59076
買	-9.59225
21	-9.5925
處	-9.59303
f	-9.59312
하얏스나	-9.59312
에의한	-9.59356
▁교육	-9.59395
限	-9.59437
의원은	-9.59511
豫定	-9.59723
▁송	-9.59741
方法	-9.59792
洪	-9.59807
▁금년	-9.59832
株	-9.59961
흐	-9.59975
着	-9.59988
광주	-9.59988
거나	-9.6005
國民	-9.60087
風	-9.60091
균	-9.60111
인상	-9.60146
▁같이	-9.60152
예산	-9.6019
門	-9.60324
▁다만	-9.60357
俊	-9.60379
▁예	-9.6038
釜山	-9.60423
임을	-9.60549
長官	-9.60573
업시	-9.60592
감독	-9.60615
측은	-9.60659
平	-9.60856
b	-9.60892
▁영국	-9.61113
▁결국	-9.61294
▁서로	-9.61305
▁허	-9.61319
度	-9.61339
任	-9.61367
습니다	-9.61491
▁했다	-9.61549
趙	-9.61676
受	-9.61695
우리는	-9.61713
令	-9.6174
권을	-9.61815
東洋	-9.61939
委	-9.61947
한것으로	-9.6206
업는	-9.62076
▁마련	-9.62146
기는	-9.62197
나라	-9.62227
勝	-9.62286
組合	-9.62523
할때	-9.62572
▁북	-9.62736
틀	-9.62809
▁13	-9.62854
▁지적	-9.6286
예상	-9.6287
철도	-9.62874
尹	-9.63103
하려	-9.63136
경영	-9.63233
기업	-9.63249
올림픽	-9.63324
稅	-9.63366
▁많이	-9.63415
代	-9.63592
▁직접	-9.6369
世界	-9.63718
漢	-9.63727
農	-9.63776
이면	-9.63784
▁있다는	-9.63897
활	-9.63925
판매	-9.63936
利	-9.63944
22	-9.63977
▁인천	-9.64031
▁각종	-9.64095
뿐	-9.64143
능	-9.64173
方	-9.64203
鎬	-9.64345
결과	-9.64408
▁국가	-9.64471
▁오늘	-9.64509
▁칠	-9.64545
繼續	-9.64571
場	-9.64682
베	-9.64711
그룹	-9.64725
學生	-9.64742
▁아니다	-9.64775
하얏는데	-9.64792
속에서	-9.64813
잠	-9.64855
蘇	-9.64866
▁감	-9.64905
府	-9.64936
▁수출	-9.64937
지금	-9.64971
▁연구	-9.65014
▁14	-9.65135
상해	-9.65155
現在	-9.65189
24	-9.65192
談	-9.65195
기구	-9.65378
금융	-9.65385
백원	-9.65414
동화	-9.65465
京	-9.65529
것이며	-9.65636
要	-9.65654
등에	-9.65654
如何	-9.65659
26	-9.65714
▁들어	-9.65779
【	-9.65829
앞으로	-9.65877
이라더라	-9.65952
정부는	-9.66073
거리	-9.66091
要求	-9.66124
사람	-9.66169
內容	-9.66175
문을	-9.66251
鍾	-9.66295
界	-9.66324
하얏다더라	-9.66337
▁18	-9.6635
▁화	-9.66386
反對	-9.66397
方針	-9.66423
인바	-9.66468
든지	-9.6649
s	-9.66508
▁매우	-9.66541
우는	-9.66671
영국	-9.66772
대책	-9.66788
'	-9.6682
▁갖고	-9.66881
聖	-9.66894
車	-9.66909
주는	-9.67047
▁북한	-9.67069
외교	-9.67202
見	-9.67257
는바	-9.67333
▁취	-9.67366
色	-9.67441
▁참석	-9.67475
臺	-9.67557
▁미국의	-9.67573
동맹	-9.67623
사실	-9.67647
작품	-9.67673
は	-9.67696
種	-9.6779
交涉	-9.67807
秀	-9.6781
일부	-9.67832
鉉	-9.67926
▁이상	-9.67969
中央	-9.68066
▁윤	-9.68068
▁가운데	-9.68073
止	-9.68112
개월	-9.68128
▁가진	-9.68147
▁○|	-9.68147
잔	-9.68179
陽	-9.68221
區	-9.68237
하에	-9.68319
말을	-9.68407
협정	-9.68489
장관	-9.68539
▁이것이	-9.68575
60	-9.68644
하얏는대	-9.68691
많은	-9.68741
군이	-9.68785
朝	-9.68923
경에	-9.68957
수도	-9.6901
는것을	-9.69024
솔	-9.69092
▁사실	-9.69151
○、	-9.69157
反	-9.69208
▁정부는	-9.69245
仁川	-9.69287
言	-9.69309
다고	-9.69359
▁지난해	-9.69381
쯤	-9.69412
일상오	-9.69422
千	-9.6952
▁임	-9.69532
커	-9.69553
엽	-9.69593
률	-9.69691
치안	-9.6971
엇	-9.69805
괴	-9.69922
사이에	-9.70012
政治	-9.7004
혁명	-9.70105
▁현대	-9.70185
와서	-9.70235
▁있었다	-9.70286
d	-9.70436
마다	-9.70456
이라도	-9.70498
向	-9.70517
▁우리가	-9.70606
28	-9.70616
加	-9.70623
안을	-9.70646
p	-9.70746
조차	-9.70771
탁	-9.70825
국회	-9.70928
約	-9.70938
후보	-9.70965
어서	-9.7099
들도	-9.71016
백만원	-9.71083
▁추진	-9.71165
花	-9.7126
主義	-9.71266
圭	-9.71299
앞	-9.71304
』『	-9.7143
시키고	-9.71453
번지	-9.71507
鐵	-9.71603
時間	-9.71625
自由	-9.71626
기관	-9.71688
예술	-9.71699
提出	-9.71741
▁“	-9.71798
▁‘	-9.71865
▁노	-9.71897
문제를	-9.71898
23	-9.719
一五	-9.71902
음악	-9.71903
통일	-9.71914
勢	-9.71917
▁살	-9.71988
하는등	-9.72001
객	-9.72051
그의	-9.72148
▁올해	-9.72198
▁◇|	-9.72215
校	-9.72222
하기위해	-9.72252
경남	-9.72297
발행	-9.72359
省	-9.72507
혹	-9.72571
▁16	-9.72604
하더라	-9.72614
紙	-9.72624
手	-9.72694
▁우리나라	-9.72697
대통령의	-9.72728
하되	-9.72786
해결	-9.72913
男	-9.72975
쇼	-9.72984
▁때	-9.73009
▁실	-9.73063
했는데	-9.73071
오후	-9.73086
이십일	-9.73198
운영	-9.73283
경찰	-9.73431
▁때문에	-9.73538
▁바로	-9.73559
굴	-9.73601
하기위하여	-9.73689
다는	-9.7372
정부의	-9.73743
소련	-9.73771
경비	-9.73858
에대해	-9.73862
에의하면	-9.73877
글	-9.73911
黃	-9.73956
것도	-9.73979
工	-9.74007
전국	-9.74051
벽	-9.74085
인사	-9.74111
로는	-9.74129
상을	-9.7413
▁25	-9.74275
선수	-9.74354
27	-9.74366
時代	-9.744
치고	-9.74411
할것이라고	-9.74425
▁해결	-9.74428
大使	-9.74435
英國	-9.7452
▁보도	-9.74567
이미	-9.74806
方面	-9.74829
第一	-9.74864
달라	-9.74942
星	-9.75005
▁노력	-9.75088
源	-9.7517
선전	-9.75175
策	-9.75176
시키는	-9.75191
雲	-9.75331
烈	-9.75367
개국	-9.75398
▁오히려	-9.75413
할만한	-9.7542
경우	-9.7543
방문	-9.75457
검	-9.75513
아시아	-9.75578
결의	-9.75719
하고잇는	-9.75752
價	-9.75824
左	-9.75849
규정	-9.75851
upi	-9.75946
누	-9.75955
이유	-9.75987
▁제일	-9.76066
▁17	-9.7611
院	-9.7615
▁여러	-9.7616
便	-9.76186
다음	-9.76255
기가	-9.76296
議會	-9.76354
으로서는	-9.76361
출신	-9.7641
작년	-9.7642
靑年	-9.76435
大學	-9.76437
하지만	-9.76447
외에	-9.76448
제도	-9.76535
姜	-9.76585
고려	-9.76603
機關	-9.76685
코저	-9.76721
二五	-9.76756
▁七	-9.76801
슈	-9.76804
대를	-9.76818
雨	-9.76872
應	-9.76916
둔	-9.76935
북한	-9.76955
힘	-9.76967
▁고려	-9.77006
多	-9.77081
잇	-9.77114
시대	-9.77134
기에	-9.7718
▁학생	-9.77189
구성	-9.7727
치못	-9.7729
제네바	-9.77475
至	-9.77503
이러한	-9.77569
총재	-9.77587
묘	-9.7759
目的	-9.77666
柳	-9.77714
▁구속	-9.77766
▁그들은	-9.77766
슬	-9.77815
평화	-9.77893
가튼	-9.77986
蘇聯	-9.77998
업체	-9.78013
지국	-9.78046
80	-9.78089
▁작품	-9.78188
▁하루	-9.78237
느	-9.7825
되었는데	-9.78342
記	-9.78369
시부터	-9.78491
니다	-9.78495
끝에	-9.78561
하였다고	-9.78635
協議	-9.78638
求	-9.78679
씨등	-9.7869
지나	-9.78709
부대	-9.78812
등은	-9.78826
l	-9.78902
조약	-9.78943
▁八	-9.79009
觀	-9.79061
혹은	-9.79074
앙	-9.79083
되엿다	-9.79093
▁같다	-9.79127
탈	-9.7913
만흔	-9.79138
통신	-9.79164
자동차	-9.79213
진행	-9.79223
헤	-9.7928
전부	-9.79295
내에	-9.79359
뉴욕	-9.79378
▁대구	-9.79388
고한다	-9.79467
圓	-9.79487
土	-9.79505
낫	-9.79585
한것을	-9.79649
추진	-9.79726
路	-9.79733
29	-9.79739
로서는	-9.79769
▁생산	-9.7981
▁당시	-9.7986
當地	-9.79882
년간	-9.79923
참가	-9.79982
ᄉ	-9.8007
퇴	-9.80154
전문	-9.80176
申	-9.8019
이상의	-9.80248
에의하여	-9.80331
맛	-9.8034
▁그것이	-9.80351
▁앞서	-9.80379
혈	-9.80385
싸	-9.80396
▁기타	-9.80441
▁외국	-9.80639
▁前	-9.80641
船	-9.80682
二十	-9.80769
口	-9.80796
하거나	-9.80873
右	-9.81037
▁외	-9.81039
해군	-9.81074
잡	-9.81129
되며	-9.81132
▁설치	-9.81145
銀	-9.81221
▁밤	-9.81261
▁최고	-9.81278
k	-9.81291
업자	-9.81349
▁여러가지	-9.81389
발견	-9.81422
制度	-9.81465
안에	-9.81513
납	-9.81553
이라한다	-9.81564
科	-9.81573
示	-9.81598
▁류	-9.81625
교회	-9.81654
設置	-9.8167
당지	-9.81778
▁張	-9.81801
▁의하면	-9.81893
▁처음	-9.81903
が	-9.81911
을위한	-9.81923
같이	-9.81964
보다는	-9.81988
간부	-9.82007
澤	-9.8204
十一	-9.82064
감사	-9.82071
▁발견	-9.82093
年度	-9.82114
맹	-9.82121
女子	-9.82133
발생	-9.82141
努力	-9.82178
하엿	-9.82184
지가	-9.82195
▁다음과같다	-9.82252
매우	-9.82293
점이	-9.82365
▁전긔	-9.82415
▁21	-9.82426
몽	-9.82446
장관은	-9.82492
滿	-9.82532
정당	-9.82536
조치	-9.82557
교섭	-9.8256
욱	-9.82586
▁자유	-9.82656
제한	-9.82663
▁너무	-9.82748
하였으며	-9.82755
輸出	-9.82843
▁열린	-9.82998
▁그러한	-9.83053
條約	-9.83081
하는동시에	-9.831
▁보인다	-9.83192
학원	-9.83212
때는	-9.83252
긴	-9.83255
개의	-9.83291
대통령이	-9.8331
▁변	-9.83382
程度	-9.83429
大邱	-9.83429
某	-9.83456
弗	-9.83465
▁동경	-9.83508
퍼	-9.83512
혜	-9.83517
내각	-9.8363
종합	-9.8368
하오	-9.83702
▁수사	-9.83744
▁설명	-9.83757
남자	-9.83794
傳	-9.83808
▁서울시	-9.83829
鐵道	-9.83938
淳	-9.83952
총무	-9.84074
특파원	-9.84129
死	-9.84138
up	-9.84165
소년	-9.84188
:	-9.8421
몰	-9.8431
하여야	-9.84384
공동	-9.84411
가지	-9.84427
鳳	-9.84496
름	-9.84518
전을	-9.84546
이엇다	-9.84691
에잇서서	-9.84713
餘	-9.84721
교통	-9.84765
▁대학	-9.84765
豫算	-9.84826
開始	-9.84827
쪽	-9.84833
될것이다	-9.8485
▁평양	-9.84882
전주	-9.84899
▁사람이	-9.84905
務	-9.84906
회원	-9.84963
역시	-9.84984
佛	-9.8506
▁〃	-9.85175
吳	-9.852
强	-9.85225
욕	-9.85269
之	-9.85322
現	-9.85331
주택	-9.85347
馬	-9.85409
문학	-9.85478
별로	-9.85538
중에서	-9.85567
노력	-9.85608
슨	-9.85613
기대	-9.85631
先	-9.85663
지지	-9.85673
으면	-9.85682
▁홍	-9.85712
▁있으며	-9.85775
한다더라	-9.85792
▁좋은	-9.85808
없다	-9.85821
▁속	-9.85911
끼	-9.85938
▁십	-9.86091
▁방문	-9.86126
지점	-9.86161
理由	-9.86205
▁어떠한	-9.86271
三十	-9.86287
▁다음	-9.86293
上海	-9.86328
상태	-9.86479
특별	-9.8656
시에	-9.86587
▁말하고	-9.86605
士	-9.86673
른	-9.86721
▁인정	-9.86747
▁아직도	-9.86761
하기위하야	-9.86883
動	-9.86922
▁경기	-9.86925
청년회	-9.86928
▁무슨	-9.86976
職	-9.86984
자기	-9.8711
하엿더라	-9.87194
제품	-9.87246
團體	-9.87289
뜻	-9.87317
▁부인	-9.87345
價格	-9.87469
▁대통령	-9.87474
▁학교	-9.8753
릴	-9.8762
▁그리	-9.8768
외상	-9.87683
總會	-9.87685
丁	-9.87748
서도	-9.87768
▁日	-9.87778
람	-9.87831
▁24	-9.87867
▁중공	-9.87915
▁참가	-9.87936
정도	-9.87968
내에서	-9.87994
▁여자	-9.88025
▁그러	-9.88055
▁지원	-9.88125
하는것	-9.88161
특	-9.88208
신청	-9.88247
靑	-9.88252
졌다	-9.88296
▁동시에	-9.88357
치는	-9.88418
호텔	-9.88482
▁출품	-9.8852
뉴	-9.88545
奉	-9.88548
奎	-9.88592
▁中共	-9.88611
소장	-9.88614
▁행	-9.88647
있고	-9.88653
e	-9.88687
하는것을	-9.887
허가	-9.88756
或	-9.88865
이어	-9.88872
▁줄	-9.88892
부족	-9.88895
칼	-9.88913
▁청	-9.88926
主張	-9.88937
요청	-9.88956
소속	-9.89075
에있어서	-9.89128
▁지방	-9.89136
病	-9.89193
행위	-9.89218
▁英國	-9.89239
모스크바	-9.89246
맨	-9.8936
세를	-9.89407
보호	-9.89411
스트	-9.89412
년에	-9.89459
▁심	-9.89501
혁	-9.89534
희망	-9.89555
워싱턴	-9.8958
慶	-9.89651
產	-9.89657
斗	-9.89661
오전	-9.89699
▁作品	-9.89719
혐의로	-9.89735
하였으나	-9.89779
로동	-9.89815
低	-9.89841
▁애	-9.89862
ᄅ	-9.89914
교사	-9.89952
필요	-9.89984
▁국	-9.90007
▁이와같은	-9.90059
합의	-9.90073
頭	-9.90126
▁따르면	-9.90182
금년	-9.90204
▁일이	-9.90302
▁찾아	-9.9032
이하	-9.90337
▁올	-9.90343
戶	-9.90384
▁않고	-9.90418
죄	-9.90419
文化	-9.90439
자로	-9.90626
武	-9.90631
▁협의	-9.90642
왔다	-9.907
以來	-9.90723
▁논의	-9.90764
▁대하야	-9.90787
▁이용	-9.90789
語	-9.90791
하는것이다	-9.90816
▁볼	-9.90849
理	-9.9089
지못	-9.90974
▁확대	-9.9102
▁지금까지	-9.91092
i	-9.91108
▁기대	-9.91185
▁반대	-9.91207
▁방금	-9.91212
▁경찰	-9.91225
g	-9.91258
▁즉시	-9.91276
그대로	-9.91304
상황	-9.91333
一九	-9.91359
민주당	-9.91363
▁간	-9.9143
哲	-9.9151
情	-9.91541
▁趙	-9.91625
결국	-9.91664
징	-9.91695
과함께	-9.9171
貿易	-9.91774
냐	-9.91825
神	-9.91896
壽	-9.9195
樂	-9.92013
는것	-9.92115
최고	-9.92118
낸	-9.922
▁수입	-9.92223
連	-9.92271
사가	-9.92276
▁개인	-9.92324
사를	-9.92331
겠다	-9.92423
益	-9.92427
대판	-9.92456
섬	-9.92484
관련	-9.92578
▁건설	-9.92607
▁계획	-9.92618
平壤	-9.92657
▁필요	-9.92731
하자는	-9.92812
늘	-9.92821
▁문제	-9.92829
與	-9.92882
이어서	-9.92894
했다는	-9.92923
▁총독부	-9.93013
총회	-9.93035
▁교	-9.93046
▁해외	-9.93072
淸	-9.93079
데모	-9.93085
▁타	-9.93099
▁후	-9.93131
室	-9.93195
45	-9.93201
▁22	-9.93237
▁구성	-9.9325
援助	-9.93255
直	-9.93277
전선	-9.93282
놓고	-9.93289
모양	-9.93319
어느	-9.93337
▁26	-9.93383
▁있어서	-9.93423
▁23	-9.9357
담당	-9.93607
聲	-9.93615
설립	-9.93669
때에	-9.93727
위에	-9.93775
賞	-9.93802
▁조직	-9.93823
소위	-9.93856
31	-9.93856
써	-9.93862
력을	-9.93949
가격	-9.93959
實施	-9.93964
組	-9.93996
浩	-9.94151
▁돈	-9.942
개시	-9.94257
모두	-9.94284
오일	-9.94291
▁몇	-9.943
五十	-9.94376
▁강화	-9.9445
생활을	-9.94462
活動	-9.94485
인도	-9.94503
협상	-9.94524
중공	-9.94541
장소	-9.94602
하엿다더라	-9.9462
예정	-9.94646
▁기록	-9.94801
후에	-9.94891
報告	-9.94906
變	-9.95086
宗	-9.95123
極	-9.95134
新聞	-9.95158
▁불구하고	-9.95245
처분	-9.95251
사원	-9.95258
▁신문	-9.95262
묵	-9.95335
▁생활	-9.95369
雄	-9.95415
시험	-9.95461
찰	-9.95537
투자	-9.95562
확대	-9.95564
통과	-9.9572
節	-9.95764
級	-9.95786
까지도	-9.95789
제출	-9.959
▁여성	-9.95907
월부터	-9.9592
지사	-9.95976
古	-9.95985
전통	-9.96001
▁특별	-9.96014
h	-9.9604
가량	-9.96054
▁27	-9.9606
발인	-9.96096
準備	-9.96104
해주	-9.96107
우리의	-9.96167
▁보면	-9.96183
▁합의	-9.96222
▁유지	-9.96255
민주	-9.96281
되고있는	-9.96288
기간	-9.96346
변경	-9.96385
▁그후	-9.96387
시킬	-9.96402
것인데	-9.96412
에있어	-9.96412
▁이렇게	-9.96428
조선인	-9.96515
승인	-9.96519
휴	-9.96521
군사	-9.96654
일간	-9.96657
外相	-9.96781
▁공동	-9.96825
개혁	-9.96853
씨에게	-9.96855
해도	-9.9694
▁일본의	-9.96959
전긔	-9.96964
▁검토	-9.96974
아직	-9.96978
▁있는데	-9.97001
선언	-9.97006
스타	-9.97008
▁문화	-9.97028
새로운	-9.97079
ᄂ	-9.97122
봄	-9.9716
意	-9.97204
▁새로	-9.97219
개소	-9.97336
r	-9.97338
열차	-9.97352
년동안	-9.97365
建設	-9.97396
하라고	-9.97405
▁現在	-9.97429
▁개발	-9.97453
에만	-9.9749
▁그래서	-9.97508
사건의	-9.97542
일대	-9.97545
精神	-9.97572
十二	-9.97582
사실을	-9.97764
輸入	-9.97797
と	-9.97839
n	-9.97871
파견	-9.97886
▁하나	-9.97897
기때문에	-9.97899
튼	-9.97914
承認	-9.97988
(1	-9.98054
숭	-9.98175
근무	-9.98194
▁받은	-9.98209
롱	-9.9825
물을	-9.98252
행사	-9.98312
宋	-9.98315
▁各	-9.9833
할것으로	-9.98409
이제	-9.98441
도시	-9.98475
북경	-9.9848
境遇	-9.98485
나무	-9.98486
박사	-9.98557
市塲	-9.98605
휘	-9.98698
近	-9.98698
▁받고	-9.98721
▁지난달	-9.98777
▁이해	-9.98883
▁포함	-9.98925
▁집	-9.99032
工業	-9.99034
논	-9.99036
70	-9.99054
例	-9.99079
첫	-9.99189
국내	-9.99254
총장	-9.99287
의장	-9.99296
▁사람	-9.9935
세력	-9.99424
머	-9.99424
사람은	-9.99488
있어	-9.99496
천만원	-9.9951
附	-9.9953
있으며	-9.99564
▁통	-9.99591
일오	-9.99601
即	-9.99782
▁기업	-9.9979
하다는	-9.9979
▁곳	-9.99823
만주	-9.99849
사태	-9.99866
▁尹	-9.99876
愛	-9.9989
회를	-9.99899
▁것이라고	-9.99901
삼십일	-9.99914
▁白	-9.99932
憲	-9.99951
▁진행	-9.99951
許	-9.99991
느냐	-10.0009
▁28	-10.001
km	-10.0014
식을	-10.0019
일원	-10.0025
마저	-10.003
議	-10.0036
하겠다고	-10.0042
구조	-10.0048
내용	-10.005
대가	-10.005
▁민주당	-10.0052
▁만나	-10.0055
▁불과	-10.0059
記者	-10.0066
▁제출	-10.0071
공원	-10.0072
o	-10.0077
落	-10.0081
에게는	-10.0085
제를	-10.009
직원	-10.0091
國會	-10.0098
부근	-10.0098
사오	-10.0102
고문	-10.0106
중의	-10.0108
▁겨우	-10.0112
육군	-10.0117
井	-10.0124
위를	-10.0126
▁요청	-10.0126
빠	-10.0131
孫	-10.0134
億	-10.0135
▁현금	-10.0135
까지는	-10.0136
訪問	-10.0136
諸	-10.0137
칙	-10.0142
만한	-10.0143
再	-10.0153
하엿다는데	-10.0153
흔	-10.0156
產業	-10.0159
部隊	-10.016
거래	-10.0161
淑	-10.0166
條件	-10.0167
▁이들은	-10.0179
협력	-10.018
탕	-10.0182
史	-10.0186
圖	-10.0187
决議	-10.0189
방법	-10.0193
初	-10.0194
현대	-10.0195
지않고	-10.0196
보조	-10.0197
故	-10.0199
센터	-10.0201
▁관계	-10.0202
海軍	-10.0203
▁자신의	-10.0204
▁國會	-10.0204
▁근	-10.0206
谷	-10.0213
상무	-10.0215
tv	-10.0217
▁증가	-10.022
▁자연	-10.022
▁十	-10.0222
▁國民	-10.0225
았다	-10.0226
▁위	-10.0227
그러	-10.0228
、○	-10.0228
議長	-10.0229
▁귀	-10.0233
發展	-10.0247
富	-10.0249
米國	-10.0259
개선	-10.0263
▁맞	-10.0263
개인	-10.0265
뿐만아니라	-10.027
▁지나	-10.0286
報道	-10.0291
한뒤	-10.0293
되자	-10.0293
설명	-10.0293
하기위한	-10.0299
東京電	-10.0301
운동을	-10.0304
知	-10.0307
일구	-10.0309
작가	-10.0311
▁독	-10.0314
位	-10.0323
▁생	-10.0332
마산	-10.0338
▁그가	-10.0338
협의회	-10.034
움	-10.0342
하얏스며	-10.0355
改正	-10.0355
急	-10.0356
선을	-10.0359
頃	-10.0362
二三	-10.0366
극장	-10.037
燮	-10.0379
쿠	-10.038
▁정치적	-10.038
堂	-10.0383
구속	-10.0388
成立	-10.0389
▁통일	-10.039
浦	-10.0393
기획	-10.0394
따	-10.0403
影響	-10.0408
計	-10.0408
畵	-10.041
▁거듭	-10.0413
연구소	-10.0416
視	-10.0417
원조	-10.042
미술	-10.043
條	-10.043
太	-10.0431
사이	-10.0436
풀	-10.0437
힌	-10.0441
관계로	-10.0443
시킨	-10.0444
값	-10.0458
▁전부	-10.0465
▁九	-10.0469
使用	-10.047
공무원	-10.0471
성이	-10.0483
검거	-10.0487
▁그것을	-10.0487
聯盟	-10.0489
죠	-10.0489
앞에	-10.0495
회의를	-10.0497
同盟	-10.0505
▁그러면	-10.0506
받은	-10.0508
聯	-10.0508
▁눈	-10.0509
勳	-10.0514
동경전	-10.052
칠일	-10.0528
계의	-10.0532
주최	-10.0533
께	-10.0544
경북	-10.0548
▁발전	-10.0549
칭	-10.0549
이므로	-10.0552
食	-10.0554
▁거행	-10.0555
▁처음으로	-10.0558
을가지고	-10.0566
할지라도	-10.0571
通過	-10.0574
▁한번	-10.0577
▁만일	-10.0579
사랑	-10.058
▁不	-10.058
▁좀	-10.0582
장려	-10.0591
▁파	-10.0594
▁민	-10.0603
잇는데	-10.0603
기위해	-10.0607
▁特	-10.0611
렌	-10.0614
총독부	-10.0617
一八	-10.0619
사건을	-10.0621
이지만	-10.0626
천명	-10.0631
容	-10.0636
환경	-10.0636
統一	-10.0637
부문	-10.064
물이	-10.0647
▁주요	-10.065
濟	-10.0651
맡	-10.0652
여성	-10.0654
▁예상	-10.0654
전화	-10.0655
▁때문이다	-10.0657
대상	-10.0659
평균	-10.066
橋	-10.0661
▁잇는	-10.0662
▁얼마나	-10.0664
....	-10.0667
님	-10.0671
가족	-10.0672
▁정부의	-10.0679
▁만들어	-10.0684
체제	-10.0694
對策	-10.07
問	-10.0704
眞	-10.0705
각각	-10.0708
內閣	-10.0712
홀	-10.0713
▁극	-10.0719
기록	-10.0721
교장	-10.0722
▁없어	-10.0723
체포	-10.0728
▁남자	-10.073
華	-10.073
눈	-10.0732
제의	-10.074
▁발생	-10.0742
이든	-10.0745
책을	-10.0748
▁대해서는	-10.0751
▼	-10.0753
둘	-10.0754
보는	-10.0754
사항	-10.0755
露	-10.0757
徐	-10.0758
▁참여	-10.0761
▁포	-10.0768
▁내가	-10.0772
밋	-10.0773
농촌	-10.0775
▁◇...	-10.0775
▁예정	-10.0778
시반	-10.0781
마련	-10.0782
▁혹은	-10.0786
豫想	-10.0808
▁독일	-10.0814
▁확인	-10.0818
周	-10.0824
起	-10.0826
▁소위	-10.0828
형사	-10.0834
밧	-10.0836
는다	-10.0839
▁자동차	-10.0846
농민	-10.0847
재정	-10.0848
뿐아니라	-10.0853
敵	-10.0854
十五	-10.0868
고말하였다	-10.0873
팔일	-10.0874
것입니다	-10.0875
▁無	-10.0876
▁않은	-10.0877
비를	-10.0878
大阪	-10.0881
하기에	-10.0884
전남	-10.0886
모집	-10.0889
▁29	-10.0892
▁알려졌다	-10.0896
민족	-10.0896
즉시	-10.0898
잇고	-10.0899
코자	-10.0909
방침	-10.091
率	-10.0917
第二	-10.0923
하므로	-10.0923
문제에	-10.0924
▁공개	-10.0933
실로	-10.0933
施設	-10.094
안정	-10.0941
서로	-10.0943
▁별	-10.0948
宣傳	-10.0949
▁전혀	-10.0949
料	-10.0949
景	-10.0952
문젯는	-10.0959
勢力	-10.0962
▁과연	-10.0962
보니	-10.0963
가티	-10.0964
柱	-10.0964
調	-10.0969
달러	-10.0969
▁죽	-10.098
▁날	-10.098
현상	-10.0982
아동	-10.0984
변호사	-10.0986
▁온	-10.0995
하였다한다	-10.0997
독일	-10.0999
▁참	-10.1002
具	-10.1002
提案	-10.1002
未	-10.1005
두고	-10.1006
에사는	-10.1011
表	-10.1013
今	-10.1016
김영	-10.1018
그는	-10.1023
원산	-10.103
▁그러므로	-10.1033
意見	-10.1034
하엿고	-10.1041
縣	-10.1045
▁받아	-10.1045
비난	-10.1053
個	-10.1062
舘	-10.1071
가치	-10.11
伊	-10.1107
측이	-10.1108
사일	-10.1111
制限	-10.1116
던지	-10.1121
▁운영	-10.1122
된바	-10.1128
하였고	-10.113
如左	-10.113
▁기술	-10.1138
한편	-10.1143
支局	-10.1144
전쟁	-10.1148
재산	-10.1152
决	-10.1155
대장	-10.1165
수를	-10.1166
째	-10.1168
뎨	-10.1169
課長	-10.1177
業者	-10.1179
당한	-10.1179
고교	-10.1179
어떤	-10.1182
하지못	-10.1182
▁있고	-10.1183
투쟁	-10.1184
있었다	-10.1186
성립	-10.119
일일	-10.1194
쉬	-10.1195
▁인도	-10.1199
▁대하여	-10.1203
空	-10.1209
夏	-10.1216
딸	-10.1216
y	-10.1218
守	-10.1219
生產	-10.122
당국은	-10.1221
末	-10.1242
措置	-10.1253
增	-10.1253
▁규정	-10.1259
▁난	-10.126
이더라	-10.1261
作品	-10.1263
||	-10.1264
字	-10.1265
副	-10.1267
流	-10.1269
하얏슴으로	-10.1272
▁또다시	-10.1272
時勢	-10.1273
회관	-10.1274
백여	-10.1278
츠	-10.1279
▁입장	-10.128
▁스스로	-10.1281
에잇서	-10.1284
주간	-10.1285
연기	-10.1286
主催	-10.1289
되어있다	-10.1291
▁추	-10.1292
更	-10.1301
봉천	-10.1302
經	-10.1303
▁보내	-10.1306
可	-10.1308
출발	-10.131
외국	-10.1312
▁은행	-10.1312
歸	-10.1317
多數	-10.1319
付	-10.1321
영업	-10.1321
하더라도	-10.1328
수원	-10.1328
문제는	-10.1331
音	-10.1334
이십	-10.1335
北京	-10.1338
w	-10.1341
버리	-10.1346
完	-10.1349
▁결과	-10.1358
國際	-10.1358
管理	-10.136
禮	-10.1361
사무소	-10.1363
상공	-10.137
작전	-10.1378
人氣	-10.1379
계획을	-10.1387
一六	-10.1397
類	-10.1398
일로	-10.1398
望	-10.1402
勿論	-10.1405
일본인	-10.1413
系	-10.1418
協	-10.1421
協會	-10.1423
▁성공	-10.1424
여고	-10.1431
劇	-10.1431
있	-10.1432
▁비난	-10.1434
思想	-10.144
▁특선	-10.1443
▁야당	-10.1458
▁강조	-10.1459
우승	-10.1459
창립	-10.1459
喜	-10.1459
심의	-10.146
▁반드시	-10.1462
려고	-10.1463
遠	-10.1465
방지	-10.1466
될것이라고	-10.1469
老	-10.1471
공격	-10.1477
정부가	-10.1478
부를	-10.1481
읍내	-10.1483
사건은	-10.1484
것이니	-10.1492
同和	-10.1495
동포	-10.1502
년대	-10.1508
事情	-10.1508
하야는	-10.1508
委員長	-10.1509
목하	-10.1514
洋	-10.1514
성과	-10.1515
아이	-10.1516
하리라고	-10.1519
수용	-10.1528
밧게	-10.1532
세기	-10.1532
구제	-10.1533
피고인	-10.1535
朝鮮人	-10.1536
끝	-10.1546
촉	-10.1546
정세	-10.1546
地域	-10.155
먹고	-10.1551
지부	-10.1551
제이	-10.1552
한즉	-10.1555
夫	-10.1556
육일	-10.1558
학과	-10.1559
▁종합	-10.1561
장이	-10.1561
사건이	-10.1562
하엿다고	-10.1562
되기	-10.1566
학년	-10.1573
둥	-10.1575
好	-10.1576
▁있으나	-10.1578
상품	-10.158
소리	-10.1585
건축	-10.1589
원장	-10.159
문젯를	-10.1591
장은	-10.1602
단계	-10.1606
경관	-10.1611
하얏고	-10.1614
목적	-10.1616
동리	-10.1617
▁이곳	-10.1622
감소	-10.1623
▁개정	-10.1623
▁내년	-10.1627
대리	-10.1632
全部	-10.1633
통제	-10.1634
먹	-10.1637
票	-10.1639
〈	-10.1642
保	-10.1644
▁광주	-10.1646
먼저	-10.1646
렴	-10.165
港	-10.1653
都	-10.1653
——	-10.1654
聲明	-10.1656
二四	-10.1656
行政	-10.1656
▁준비	-10.1657
良	-10.1657
中共	-10.166
되어야	-10.1669
▁표현	-10.1672
火	-10.1672
하엿슴으로	-10.1678
만히	-10.168
秋	-10.1681
均	-10.1682
사정	-10.1686
주재	-10.1687
중지	-10.1687
▁량	-10.1688
▁安	-10.1691
바다	-10.1691
엿	-10.1694
▁않는	-10.1695
할일	-10.1696
원으로	-10.1698
얼	-10.1699
제안	-10.1699
있을	-10.1702
하는한편	-10.1706
??	-10.1706
解决	-10.1707
소집	-10.1707
이용	-10.1708
율	-10.1713
으니	-10.1719
지대	-10.1725
천군	-10.1732
독립	-10.1735
▁인간	-10.1744
빗	-10.1747
一七	-10.1748
▁한국의	-10.1753
있는데	-10.1756
의건	-10.1757
當時	-10.1758
减	-10.1759
▁국민의	-10.1772
▁본사	-10.1772
夜	-10.1772
하시	-10.1773
공급	-10.1773
들에	-10.1774
동면	-10.1775
축구	-10.1776
책임	-10.1781
嚴	-10.1784
▁막	-10.1791
기념	-10.1795
載	-10.1797
形	-10.1799
整理	-10.18
部長	-10.1802
▁들어가	-10.1806
에달	-10.1807
支	-10.1808
무슨	-10.181
군대	-10.182
계약	-10.183
寺	-10.1832
부정	-10.1832
送	-10.1833
실현	-10.1836
維持	-10.1838
▁과거	-10.1838
보아	-10.1842
훈련	-10.1843
署	-10.1843
원이	-10.1848
스러운	-10.1858
듯이	-10.1858
질문	-10.186
▁수도	-10.1863
▁평화	-10.1865
延	-10.1872
당국	-10.1877
獨逸	-10.1877
舊	-10.1877
討議	-10.1879
▁선전	-10.1879
▁어려운	-10.1883
부터는	-10.1887
중에는	-10.189
본사	-10.1891
j	-10.1893
일이다	-10.1893
신고	-10.1898
이잇다	-10.1903
때에는	-10.1906
토의	-10.1915
피고	-10.1916
할것은	-10.1917
활동을	-10.1921
▁비롯	-10.1924
예금	-10.1927
회복	-10.1927
비가	-10.1937
될것으로	-10.194
身	-10.1949
프로	-10.1949
▁도시	-10.1951
단장	-10.1951
취급	-10.1952
原因	-10.1964
承	-10.1965
▁않을	-10.1967
시민	-10.1978
회의에서	-10.1978
一部	-10.1983
▁비롯한	-10.1984
대의	-10.1986
의사	-10.1988
▁희망	-10.1991
、○○	-10.1991
▁돌	-10.1997
▁自由	-10.2
중학교	-10.2009
▁부정	-10.2018
분경	-10.2025
프랑스	-10.2027
課	-10.2035
法案	-10.2036
)△	-10.2037
▁위하여	-10.204
고등학교	-10.204
더니	-10.2042
년전	-10.2042
以下	-10.2043
사람의	-10.2043
熱	-10.2047
治	-10.205
靑年會	-10.2057
放送	-10.2063
文學	-10.2067
대변인은	-10.2073
정권	-10.2073
증권	-10.2075
▁그렇게	-10.208
중이다	-10.2081
부담	-10.2082
退	-10.2085
주인	-10.2087
인정	-10.2091
놀	-10.2093
萬圓	-10.2096
내의	-10.2099
狀	-10.21
확장	-10.2102
정책을	-10.2107
흑	-10.211
▁우승	-10.2113
▁처리	-10.2116
방면	-10.2119
수리	-10.212
하라는	-10.2126
困難	-10.2127
우려	-10.2134
炳	-10.2135
드러	-10.2135
▁잠	-10.2137
▁경영	-10.2141
▁영화	-10.2141
소유	-10.2142
三日	-10.2146
▁요	-10.2152
검토	-10.2154
정신	-10.2156
▁좀더	-10.2162
▁넘어	-10.2163
▁이번에	-10.2176
선생	-10.2178
관계를	-10.2178
致	-10.218
부의	-10.218
샤	-10.2184
▁달리	-10.2185
남녀	-10.2187
있던	-10.2194
敗	-10.2194
내용을	-10.2195
시가	-10.22
만치	-10.2209
개성	-10.221
국민학교	-10.2213
▁자유당	-10.2216
시세	-10.2222
<	-10.2225
參加	-10.2227
▁남편	-10.2229
▁의해	-10.223
는지	-10.223
인대	-10.2234
이삼	-10.2238
▁친	-10.224
獨	-10.2242
화가	-10.2244
▁民主黨	-10.2245
▁南	-10.2245
업무	-10.2251
kg	-10.2254
매매	-10.2255
▁정당	-10.2257
되는데	-10.2258
▁그때	-10.226
확	-10.2261
始	-10.2263
된다고	-10.2265
外交	-10.2269
실행	-10.2269
]	-10.2277
가서	-10.2279
일육	-10.2279
▁농촌	-10.2293
되었다고	-10.2295
▁결코	-10.2295
▁군사	-10.2296
주식회사	-10.2296
크게	-10.2297
▁책임	-10.2302
草	-10.2302
▁향	-10.2305
선정	-10.2307
월말	-10.2308
斷	-10.2311
공개	-10.2314
과학	-10.2317
것이라	-10.2318
십이	-10.2321
화를	-10.2323
秒	-10.2323
댱	-10.233
▁평가	-10.2332
▁십일	-10.2332
이것을	-10.2338
군을	-10.2343
▁姜	-10.2348
責任	-10.2351
회장은	-10.2353
電通	-10.2354
▁거부	-10.2355
製	-10.2356
와가티	-10.2356
짐	-10.2358
강경	-10.2359
할수있다	-10.2372
▁50	-10.2372
革命	-10.2373
념	-10.2376
도입	-10.2381
34	-10.2382
乙	-10.2385
군수	-10.2388
받아	-10.2389
財政	-10.2389
▁왜	-10.2393
드리	-10.2393
▁다소	-10.2395
목사	-10.2395
▁림	-10.2396
지요	-10.24
▁일단	-10.2401
經營	-10.2401
▁초청	-10.2402
統制	-10.2406
▁지역	-10.2406
주일	-10.2409
▁그림	-10.2414
希望	-10.2414
되엇는데	-10.2416
勞働	-10.2416
▁경남	-10.2419
▁힘	-10.2422
▁길	-10.2425
문제가	-10.2425
투표	-10.2431
局長	-10.2431
교환	-10.244
명령	-10.2441
끗	-10.2442
▁역	-10.2446
内	-10.2449
각종	-10.245
거의	-10.245
詩	-10.2453
주고	-10.2458
▁정책	-10.2459
해왔다	-10.2459
곤란	-10.2461
大新	-10.2462
▁쓰	-10.2465
성공	-10.2466
貞	-10.2466
고말했다	-10.2473
다만	-10.2475
▁아닌	-10.2487
자리	-10.2488
轉	-10.2489
그런	-10.2493
▁감사	-10.2493
▁합	-10.2494
어린이	-10.2494
▁중요한	-10.2495
스키	-10.2495
▁自己	-10.2497
성명	-10.2506
▁병	-10.2513
禁止	-10.2513
▁따른	-10.2518
乃至	-10.2518
것같다	-10.253
일인	-10.253
▁나라	-10.2531
▁가정	-10.2531
▁인사	-10.2538
시키	-10.2542
▁조선인	-10.2543
제국	-10.2543
相當	-10.2548
략	-10.2549
將軍	-10.2552
▁교통	-10.2555
▁지지	-10.2555
흘	-10.2561
해야할	-10.2564
진출	-10.2566
화학	-10.257
一二	-10.2574
함과	-10.2578
規定	-10.2578
되었으며	-10.2583
옹	-10.2584
생도	-10.2586
과가티	-10.2589
▁된다	-10.2592
안에서	-10.2593
이라며	-10.2597
조건	-10.2597
주목	-10.26
事態	-10.2615
行動	-10.2616
구일	-10.2619
아이젠하워	-10.262
藥	-10.2628
링	-10.2629
二六	-10.2632
▁따	-10.2633
發行	-10.2636
▁종	-10.2647
惡	-10.2649
업다	-10.2652
店	-10.2662
▁必要	-10.2667
硏究	-10.2669
▁분석	-10.2673
부르	-10.2673
사무	-10.2681
宮	-10.2685
▁목	-10.2686
매방	-10.2697
師	-10.2699
이냐	-10.2704
아닌	-10.2719
관계가	-10.2719
▁암	-10.2722
▁전문	-10.2722
▁공식	-10.2724
▁현지	-10.2724
收	-10.2729
光州	-10.2732
곳에	-10.2732
▁世界	-10.2737
四五	-10.2741
攻擊	-10.2753
직접	-10.2754
金融	-10.276
감을	-10.2761
▁금년도	-10.2765
전북	-10.2769
하엿스며	-10.2769
지아니	-10.277
90	-10.2771
貨	-10.2774
륜	-10.2775
選	-10.2775
▁우려	-10.2781
甚	-10.2785
제조	-10.2786
範	-10.2791
항공	-10.2797
뜨	-10.2801
사진은	-10.2803
기사	-10.2804
第	-10.2805
사고	-10.2806
십오	-10.2807
▁채	-10.2812
삼십	-10.2818
▁인상	-10.282
▁편	-10.2822
邊	-10.2823
▁뜻	-10.2826
?』	-10.283
=1	-10.2831
문젯가	-10.2831
▁금융	-10.2832
民族	-10.2845
▁않았다	-10.2846
津	-10.2846
냈다	-10.285
할것이며	-10.2856
처음	-10.2857
백만	-10.2859
미리	-10.2863
비료	-10.2871
내외	-10.2872
지안코	-10.2873
少	-10.2877
교수는	-10.2878
警察	-10.2878
實行	-10.2881
▁어머니	-10.2882
임명	-10.2884
四十	-10.2886
農民	-10.2886
법안	-10.2893
기준	-10.2898
歌	-10.2898
상태에	-10.29
농업	-10.2901
뢰	-10.2903
願	-10.2904
을가진	-10.2907
▁中國	-10.2908
랴	-10.291
대부	-10.2917
이야기	-10.2918
▁대만	-10.2918
述	-10.2918
차로	-10.2919
일동	-10.2921
55	-10.2923
▁미군	-10.2923
▁나의	-10.2925
공산당	-10.2926
▁부내	-10.2927
하리라	-10.2928
▁사실을	-10.2928
▁당초	-10.2932
탐	-10.2936
▁대전	-10.2937
二八	-10.2939
했었다	-10.294
▁밝혀	-10.2941
▁發表	-10.2943
성의	-10.2947
릉	-10.2948
마는	-10.2949
忠	-10.2951
쌍	-10.2952
▁환경	-10.2953
탑	-10.2956
▁사고	-10.2956
소비	-10.2962
速	-10.2968
到着	-10.297
야당	-10.2972
공작	-10.2973
格	-10.2974
能	-10.2975
랄	-10.298
質	-10.2982
審議	-10.2983
な	-10.2985
役	-10.2996
진다	-10.3002
▁집중	-10.3004
켜	-10.3005
▁없을	-10.3005
진흥	-10.3005
35	-10.3007
여러가지	-10.3009
세의	-10.3011
연장	-10.3013
▁경기도	-10.3013
▁입선	-10.3017
부회장	-10.302
자연	-10.3022
졸	-10.3031
政權	-10.3039
하얏	-10.3043
면장	-10.3045
런	-10.3047
失	-10.3048
▁自	-10.305
하겠다는	-10.3053
臨時	-10.3054
戰爭	-10.3058
하였던	-10.3063
国	-10.3065
最近	-10.3065
제공	-10.3066
少年	-10.3067
平和	-10.307
映畵	-10.3072
告	-10.3073
鮮	-10.3074
▁최종	-10.3075
삽	-10.3075
工事	-10.3077
집에	-10.308
▁盧	-10.3093
였던	-10.3094
로동자	-10.3107
할수없는	-10.3107
하였다고한다	-10.3108
▁그중	-10.3109
출석	-10.3111
첩	-10.3112
인물	-10.3115
▁태	-10.312
▁파견	-10.312
명과	-10.3123
▁一般	-10.3129
강도	-10.3129
하여도	-10.313
물가	-10.313
▁돈을	-10.3131
廳	-10.3133
무기	-10.3136
事項	-10.3136
계급	-10.314
設立	-10.315
特別	-10.3152
十日	-10.3153
▁보도했다	-10.3154
통상	-10.3154
u	-10.3155
▁평	-10.3157
▁tv	-10.3158
他	-10.316
會員	-10.3165
거주	-10.3165
남북	-10.3166
타고	-10.3167
될수	-10.3168
짓	-10.317
▁떠나	-10.3174
수립	-10.3174
全州	-10.3174
세대	-10.3175
법을	-10.3176
하고자	-10.3177
音樂	-10.318
자인	-10.3182
接	-10.3185
賢	-10.3186
▁완전히	-10.3187
▁엄	-10.3191
▁누	-10.3193
|。	-10.3194
하기도	-10.3195
▁말을	-10.3197
▁점	-10.3197
▁언론	-10.3197
그동안	-10.3199
아랍	-10.3203
▁많다	-10.3206
이것은	-10.3211
36	-10.3212
▁농	-10.3214
事務	-10.3215
이라고한다	-10.3216
택시	-10.3219
내려	-10.322
▁전남	-10.322
구역	-10.3221
자본	-10.3222
岩	-10.3224
▁중심으로	-10.3225
임시	-10.3227
▁전체	-10.3227
당국의	-10.3227
원의	-10.3229
되었고	-10.3232
평가	-10.3232
시행	-10.3232
幹部	-10.3236
二九	-10.3238
신설	-10.324
드는	-10.3243
우리나라	-10.3246
▁잇	-10.3246
노래	-10.3247
擧行	-10.325
의미	-10.325
떼	-10.3254
▁도입	-10.3254
都市	-10.3256
▁행정	-10.3257
▁대표	-10.3258
태도	-10.3259
방법을	-10.3259
十五日	-10.3261
▁아무런	-10.3261
자격	-10.3263
池	-10.3266
하게된	-10.3267
에셔는	-10.3276
군산	-10.3276
방침을	-10.3284
二七	-10.3286
명으로	-10.3286
敬	-10.3288
▁확정	-10.3289
▁80	-10.3291
징수	-10.3292
위반	-10.3292
▁것도	-10.3295
▁北韓	-10.3295
▁될	-10.3297
전도	-10.3298
왓	-10.3301
려는	-10.3302
尙	-10.3302
전무	-10.3303
廿	-10.3304
重要	-10.3304
最	-10.3307
있다고	-10.3307
◆	-10.3308
심리	-10.3309
일팔	-10.3311
동일	-10.3313
엿다	-10.3315
も	-10.3324
▁제기	-10.3325
調查	-10.3326
▁산업	-10.3327
연설	-10.3327
貴	-10.3328
自己	-10.333
차에	-10.3332
▁어린이	-10.3336
投	-10.3337
내가	-10.3338
▁여기에	-10.3341
심사	-10.3348
녀자	-10.3351
▁마치	-10.3354
오늘	-10.3356
먼	-10.3366
십사	-10.3366
중요	-10.3369
意味	-10.3371
▁정부가	-10.3372
대사관	-10.3372
▁두고	-10.3374
▁늘	-10.3376
▁민간	-10.3379
37	-10.3379
▁나머지	-10.3385
작성	-10.3385
포함	-10.3386
▁◎	-10.3386
中心	-10.3388
培	-10.339
것인가	-10.3392
▁출발	-10.3392
▁당지	-10.3396
지안	-10.3398
▁그러고	-10.3399
경쟁	-10.3399
▁그리하야	-10.3402
▁왕	-10.3405
기계	-10.3408
▁광	-10.3417
▁귀국	-10.3419
총재는	-10.3419
▁설	-10.3421
敎授	-10.3429
수정	-10.3431
거부	-10.3437
매상	-10.3437
出發	-10.3438
▁창	-10.3438
그리	-10.3438
수산	-10.3439
에까지	-10.3441
今日	-10.3442
앗	-10.3443
전자	-10.3443
듯한	-10.3445
安定	-10.3445
利用	-10.3448
喆	-10.3449
한다는데	-10.345
모다	-10.3453
개를	-10.3458
삼사	-10.346
버리고	-10.3464
苦	-10.3465
빙	-10.3469
曲	-10.3469
공화국	-10.3469
항의	-10.3473
▁검거	-10.3474
양은	-10.3476
받고	-10.3476
위협	-10.3476
꾸	-10.348
營	-10.348
不足	-10.3481
元山	-10.3481
二二	-10.3482
運	-10.3483
本部	-10.3484
토지	-10.3489
석방	-10.349
공항	-10.349
되게	-10.3494
▁아들	-10.3495
건물	-10.3497
아파트	-10.3498
그들의	-10.3499
)=	-10.35
논의	-10.3501
공연	-10.3501
각국	-10.3506
▁육군	-10.3507
낼	-10.3507
조치를	-10.3507
사령관	-10.3511
수송	-10.3516
▁찾	-10.3518
와같이	-10.3523
(19	-10.3527
구호	-10.353
지적	-10.3531
屬	-10.3534
▁숨	-10.3534
쾌	-10.3537
햇	-10.3537
수있는	-10.3539
인것이다	-10.3543
날이	-10.3544
슴	-10.3551
치아니	-10.3552
엘	-10.3553
맞	-10.3555
이스라엘	-10.3557
▁잡	-10.3557
▁꼭	-10.3562
賣買	-10.3563
톄포	-10.3565
邑	-10.3571
▁설립	-10.3571
삼등	-10.3575
힐	-10.3576
아들	-10.3577
렸다	-10.3577
이런	-10.3578
鶴	-10.3581
잇섯다	-10.3581
잇서	-10.3583
사단	-10.3589
고등	-10.3593
廣	-10.3593
奉天	-10.3594
▁경찰은	-10.3597
申請	-10.3601
서울시	-10.3603
하느냐	-10.3607
肥料	-10.3608
▁이야기	-10.361
중대	-10.3614
com	-10.3615
관내	-10.3617
▁결혼	-10.3617
있으나	-10.362
結局	-10.3621
▁검찰	-10.3622
▁그들이	-10.3624
비행	-10.3625
選手	-10.3632
常	-10.3633
▁상당한	-10.3635
博士	-10.3637
一圓	-10.3637
의원이	-10.3639
兼	-10.364
▁활동	-10.3641
실업	-10.3642
총리	-10.3642
歲	-10.3642
어머니	-10.3643
흠	-10.3643
▁높은	-10.3645
쇠	-10.3646
▁민주	-10.3647
馬山	-10.365
客	-10.365
소작인	-10.3651
(7	-10.3651
擧	-10.3652
弘	-10.3652
까닭에	-10.3654
까지의	-10.3659
우선	-10.366
판사	-10.3662
이사장	-10.3662
개편	-10.3665
내용은	-10.3665
설비	-10.3668
대회를	-10.3669
變更	-10.367
▁柳	-10.3671
함흥	-10.3672
▁내려	-10.3673
상사	-10.3675
▁봄	-10.3678
▁그럼으로	-10.3684
노동	-10.3685
지불	-10.3686
내고	-10.3688
만일	-10.369
동원	-10.369
부흥	-10.3696
시찰	-10.3697
곧	-10.37
▁高	-10.37
된것은	-10.3702
가잇다	-10.3704
찌	-10.3706
젓	-10.3706
湖	-10.371
會見	-10.3712
▁徐	-10.3712
거행	-10.3718
油	-10.3719
자료	-10.3719
듯하다	-10.372
되어있는	-10.3721
宣言	-10.3728
방금	-10.3729
▁권	-10.3733
로서의	-10.3733
위생	-10.3735
十月	-10.3738
梁	-10.374
차례	-10.3746
하지않고	-10.3748
仙	-10.3748
▁생각한다	-10.3749
내는	-10.3749
정상	-10.3752
길이	-10.3753
▁요즘	-10.3754
▁긴급	-10.3754
友	-10.3754
▁현실	-10.3756
人民	-10.3757
돈을	-10.3757
바로	-10.3758
▁잘못	-10.3758
三一	-10.376
▁黃	-10.3761
자못	-10.3765
二一	-10.3767
▁담	-10.3768
母	-10.3769
현금	-10.3769
학자	-10.3769
驛	-10.377
指導	-10.3771
▁순	-10.3773
떠	-10.3775
실에서	-10.3775
구매	-10.3775
引上	-10.3781
▁오늘날	-10.3783
▁금번	-10.3784
분쟁	-10.3785
국민의	-10.3786
오십전	-10.3787
그것은	-10.3793
密	-10.3795
演說	-10.3796
년의	-10.3798
▁필요한	-10.3803
충남	-10.3808
▁풍	-10.3809
대출	-10.381
꼬	-10.381
(2	-10.3811
▁회장	-10.3813
▁사상	-10.3816
에관한건	-10.3818
라면	-10.3824
미국의	-10.3824
園	-10.3825
▁추가	-10.3826
▁보는	-10.3827
와함께	-10.383
듸	-10.3834
언론	-10.3836
나서	-10.3837
오원	-10.3837
관게	-10.3842
에걸쳐	-10.3843
일것이다	-10.3843
식은	-10.3845
▁극히	-10.3849
신의주	-10.385
오리	-10.385
|』	-10.3854
십전	-10.3854
展	-10.3854
사망	-10.3858
▁도착	-10.3858
재단	-10.386
印	-10.3863
해야한다	-10.3863
丸	-10.387
▁서울시내	-10.3871
피해	-10.3874
년만에	-10.3883
自身	-10.3887
오십	-10.3889
▁판단	-10.3889
▁앞두고	-10.389
면적	-10.3895
引	-10.3908
제작	-10.3909
콜	-10.3914
▁吳	-10.3914
다면	-10.3916
다수	-10.3918
짜리	-10.392
사실이	-10.392
가구	-10.3921
이육	-10.3921
케하고	-10.3922
中止	-10.3923
▁투자	-10.3928
경과	-10.393
당국에서는	-10.3931
감시	-10.3931
高價	-10.3932
▁금후	-10.3937
리고	-10.3939
을위해	-10.394
一一	-10.3945
▁공무원	-10.3945
▁새벽	-10.3946
▁개선	-10.3946
▁공격	-10.3947
▁最近	-10.3948
기지	-10.3948
集	-10.3951
層	-10.3951
닥	-10.3952
나온	-10.3954
좀	-10.3954
과정	-10.3956
중학	-10.3957
잇섯	-10.3961
기금	-10.3962
되었던	-10.3962
직공	-10.3962
▁전개	-10.3964
연합회	-10.3965
今後	-10.3968
▁표	-10.3968
었던	-10.3969
盛	-10.3973
갓다	-10.3977
圜	-10.3979
牛	-10.398
방식	-10.398
금을	-10.398
弱	-10.3984
숨	-10.3987
국의	-10.3989
유럽	-10.399
▁몸	-10.3992
뎍	-10.3999
▁더구나	-10.4
▁그들	-10.4001
심한	-10.4002
▁올림픽	-10.4009
▁北	-10.401
장기	-10.4012
주최로	-10.402
방위	-10.402
목포	-10.4024
▁갈	-10.4026
就	-10.4028
재판장	-10.4035
자와	-10.4041
答	-10.4042
▁누구	-10.4042
슴으로	-10.4043
파괴	-10.4043
創立	-10.4043
해서는	-10.4046
協商	-10.4046
하랴	-10.4048
연대	-10.405
일삼	-10.4051
親	-10.4053
갔다	-10.4055
부처	-10.4055
하고있는데	-10.4059
되지못	-10.4059
▁事實	-10.406
解	-10.4064
이기	-10.4064
시켰다	-10.4065
▁전망	-10.4066
상업	-10.4066
▁위협	-10.4075
대중	-10.4075
헌법	-10.4076
으로서의	-10.4077
한번	-10.4079
▁관심을	-10.4079
구원	-10.4081
共同	-10.4082
赤	-10.4084
▁주장했다	-10.4086
년부터	-10.4087
멸	-10.4088
素	-10.4089
아즉	-10.409
일본의	-10.409
인즉	-10.4094
▁착수	-10.4095
부진	-10.41
보장	-10.41
器	-10.4103
미가	-10.4107
强化	-10.411
目下	-10.4115
가정	-10.4116
풍경	-10.4119
보내	-10.4119
뒤에	-10.412
▁정상	-10.4121
▁않다	-10.4122
風景	-10.4122
兩國	-10.4122
삼오	-10.4123
▁釜山	-10.4124
▁仁川	-10.4124
쌀	-10.4127
톄	-10.4133
▁예산	-10.4134
없고	-10.4141
▁예술	-10.4144
▁이같이	-10.4145
귀국	-10.4146
評	-10.4147
總督府	-10.4156
점으로	-10.4157
자원	-10.4157
傾向	-10.4161
▁전달	-10.4173
取扱	-10.4175
▁제공	-10.418
사십	-10.4184
로인하야	-10.4186
▁적용	-10.4189
▁政治	-10.419
▁시민	-10.4195
길을	-10.4196
분의	-10.4198
二十五日	-10.4198
된다면	-10.42
竹	-10.4201
年間	-10.4203
놓	-10.4207
▁체포	-10.4211
거니와	-10.4216
▁이와	-10.422
▁판매	-10.4221
리그	-10.4222
남편	-10.4223
亂	-10.4224
꼴	-10.4225
▁英	-10.4225
없	-10.4226
▁없	-10.4227
(?)	-10.4228
▁林	-10.4228
동안에	-10.4231
一年	-10.4232
이었던	-10.4237
위험	-10.4241
▁인식	-10.4242
겨우	-10.4246
▁장기	-10.4246
사회의	-10.4246
▁소개	-10.4248
여하	-10.4248
▁실로	-10.4252
제로	-10.4252
罪	-10.4256
投票	-10.4257
순사	-10.4257
제삼	-10.4263
리는	-10.4265
삼월	-10.4266
市民	-10.4267
천여	-10.4269
▁임명	-10.4273
웨	-10.4273
▁실현	-10.4275
▁항상	-10.4277
項	-10.4281
▁매일	-10.4283
에선	-10.4284
不過	-10.4284
▁경북	-10.4291
한자	-10.4291
여부	-10.4292
태도를	-10.4293
차장	-10.4294
비용	-10.4296
케네디	-10.4296
언명	-10.4297
부는	-10.4297
▁實	-10.4299
보통학교	-10.4305
淵	-10.4305
인도네시아	-10.431
지못하고	-10.4312
犯	-10.4315
직후	-10.4316
여행	-10.4317
三月	-10.4318
동신	-10.4325
五十錢	-10.4326
확보	-10.4327
본보	-10.4327
않	-10.4327
있으니	-10.433
중인데	-10.4332
따라서	-10.4336
진정	-10.4339
부가	-10.434
과같이	-10.434
시작	-10.4342
대체	-10.4343
질서	-10.4345
▁열고	-10.4346
소재	-10.4358
소개	-10.4359
하고저	-10.436
장래	-10.4362
이전	-10.4365
에가서	-10.4369
지도자	-10.437
▁國際	-10.4374
66	-10.4374
38	-10.4376
▁가족	-10.4377
發生	-10.4385
各國	-10.4389
시절	-10.439
將來	-10.4391
듣	-10.4395
試驗	-10.4396
하고있으며	-10.4404
志	-10.4412
▁申	-10.4413
▁통과	-10.4414
낮	-10.4418
十三	-10.4422
이라면	-10.4422
있게	-10.4425
▁않는다	-10.4425
하고있다고	-10.4428
▁허용	-10.4436
▁노동	-10.4436
깨	-10.4436
이팔	-10.4437
확인	-10.4438
것이나	-10.4439
방면에	-10.4443
▁宋	-10.4445
▁토	-10.4448
56	-10.445
▁밀	-10.4451
▁아닌가	-10.4453
▁음악	-10.4454
사업을	-10.4455
▁東	-10.4455
▁복	-10.4455
간다	-10.4459
레이	-10.4464
교실	-10.4465
회담을	-10.4468
決定	-10.4468
一三	-10.4471
泳	-10.4471
▁없었다	-10.4472
免	-10.4472
경계	-10.4478
▁확보	-10.4479
할바	-10.448
일자	-10.4484
▁못하고	-10.4484
었는데	-10.4486
역사	-10.4488
전개	-10.4488
홍콩	-10.4489
い	-10.4489
機會	-10.449
제도를	-10.449
놈	-10.449
▁평균	-10.4492
▁작가	-10.4495
임금	-10.4497
錢	-10.4498
出席	-10.4499
안이	-10.4501
한일이	-10.4504
확정	-10.4504
▁젊은	-10.4506
공판	-10.4507
지면	-10.4513
왓다	-10.4518
사무총장	-10.452
▁사실상	-10.4523
し	-10.4526
지않는	-10.4527
십육	-10.4528
▁獨逸	-10.4531
▁대부분	-10.4533
党	-10.4533
任命	-10.4537
농구	-10.4542
一四	-10.4543
各地	-10.4545
▁외교	-10.4547
있음	-10.4547
떨	-10.4548
양성	-10.4551
생명	-10.4552
▁떠	-10.4558
공군	-10.456
집을	-10.456
아침	-10.4564
▁기본	-10.4564
番	-10.4568
▁높이	-10.4568
부지	-10.4571
지시	-10.4572
▁사실이	-10.4574
잇든	-10.4576
步	-10.4581
七月	-10.4582
여부를	-10.4584
證	-10.4587
5%	-10.4591
십칠	-10.4591
을위하야	-10.4591
放	-10.4594
▁전화	-10.4598
서울대	-10.4598
로운	-10.4599
恩	-10.4599
연방	-10.4599
▁문제가	-10.46
성적	-10.4601
꽃	-10.4601
市內	-10.4601
하루	-10.4602
▁알고	-10.4603
▁가지	-10.4606
규모	-10.4607
販賣	-10.4608
된것이다	-10.4608
▁안정	-10.4613
▁수용	-10.4613
▁아침	-10.4619
김종	-10.4619
할것이	-10.4622
十四	-10.4624
치료	-10.4628
▁依	-10.463
▁맹	-10.4633
동정	-10.4633
원칙	-10.4633
력이	-10.4633
第三	-10.4635
▁대개	-10.4637
나가	-10.4644
라오스	-10.4645
▁아시아	-10.4645
소식	-10.4646
實現	-10.4649
보급	-10.4652
▁남북	-10.4653
▁어찌	-10.4654
魚	-10.4659
공립보통학교	-10.4659
진영	-10.4659
▁약속	-10.4664
▁自由黨	-10.4673
많이	-10.4675
분야	-10.468
▁일어나	-10.4684
▁'	-10.4686
會長	-10.469
촉진	-10.469
利益	-10.4692
三五	-10.4692
상은	-10.4696
提議	-10.4696
進行	-10.4696
연락	-10.4696
▁서독	-10.4699
마리	-10.47
▁今年	-10.4701
션	-10.4705
▁걸쳐	-10.4705
▁대폭	-10.4706
충돌	-10.4708
市場	-10.4714
預金	-10.4716
▁적어도	-10.4717
대책을	-10.4717
회합	-10.4719
능력	-10.4719
시대의	-10.472
잇슬	-10.4724
니까	-10.4726
救濟	-10.4728
여러	-10.4733
신임	-10.4737
보통	-10.4738
服	-10.474
사천	-10.4741
백명	-10.4742
협조	-10.4742
진주	-10.4747
@	-10.4748
▁술	-10.4754
寧	-10.4754
포로	-10.4755
46	-10.4757
▁발행	-10.4759
境	-10.4761
안전	-10.4763
▁勿論	-10.4766
▁제작	-10.4766
뉴스	-10.4766
기초	-10.4766
質問	-10.4777
▁쌀	-10.4779
▁돌아	-10.4781
▁적극	-10.4781
국교	-10.4785
되는것이다	-10.4786
이던	-10.4789
▁지시	-10.4792
쥬	-10.4792
▁보통	-10.4793
텬	-10.4796
開會	-10.4799
▁앞	-10.48
獨立	-10.48
폐지	-10.4802
▁인물	-10.4803
▁아버지	-10.4803
▁第一	-10.4803
버스	-10.4803
십팔일	-10.4804
▁이름	-10.4806
장의	-10.4806
억달러	-10.4807
▁중요	-10.4807
금후	-10.4809
精	-10.481
席	-10.4812
越	-10.4814
▁a	-10.4815
陸軍	-10.4819
陸	-10.4821
▁모다	-10.4823
에대하야는	-10.4824
▁비판	-10.4825
전후	-10.4828
정의	-10.4831
▁다음과같이	-10.4833
▁東京	-10.4834
觀測	-10.4835
절차	-10.4836
▁의견을	-10.4839
분쯤	-10.484
宇	-10.4842
전략	-10.4842
겠다고	-10.4846
行爲	-10.4847
끈	-10.4847
의원의	-10.4849
波	-10.4849
어야	-10.4852
▁민족	-10.4853
경기도	-10.4856
당의	-10.4856
樹立	-10.4861
측에서는	-10.4861
취체	-10.4864
▁집단	-10.4866
不拘	-10.4871
장으로	-10.4873
우리가	-10.4873
인간	-10.4873
에있어서는	-10.4874
에도착	-10.4874
▁헌법	-10.4877
▁선정	-10.4881
준다	-10.4882
목을	-10.4884
▁하나의	-10.4885
▁서울대	-10.4885
非	-10.4886
자신	-10.4903
、○○○	-10.4905
派遣	-10.4905
야구	-10.4909
▁회담	-10.4909
디방	-10.491
다리	-10.4913
칸	-10.4913
潤	-10.4913
▁모습	-10.4914
과연	-10.4918
십사일	-10.4919
▁독립	-10.4921
인하	-10.4925
현실	-10.4926
專	-10.4927
置	-10.4931
환영	-10.4936
종료	-10.4936
通信	-10.4936
軍事	-10.4939
낙	-10.494
月末	-10.4942
▁×	-10.4942
▁낮	-10.4942
십칠일	-10.4943
羅	-10.4944
가결	-10.4946
▁안된다	-10.4946
▁사망	-10.4947
장군	-10.4948
정미	-10.495
過	-10.495
材	-10.4952
전으로	-10.4952
만불	-10.4954
알고	-10.4955
v	-10.4955
領	-10.4956
작업	-10.4957
와같은	-10.4958
었	-10.4958
▁법	-10.4962
純	-10.4965
▁이른바	-10.4968
▁훨씬	-10.497
초청	-10.4971
룡산	-10.4982
□□□	-10.4983
二十日	-10.4984
정기	-10.4985
▁저녁	-10.4988
짝	-10.4988
를위한	-10.4989
사람에게	-10.4992
▁일본인	-10.4995
리원	-10.4999
準	-10.5003
藝術	-10.5013
해외	-10.5013
수상은	-10.5015
▁믿	-10.5017
65	-10.5019
강연	-10.5019
chosun	-10.502
▁미술	-10.5021
▁이로써	-10.5022
▁제시	-10.5026
▁中央	-10.5032
교류	-10.5032
일보	-10.5032
원인	-10.5033
▁공화당	-10.5035
경찰서에서는	-10.5037
一時	-10.5041
......	-10.5047
십삼일	-10.5048
었고	-10.505
상에	-10.5051
하게될	-10.5052
細	-10.5052
期待	-10.5053
阪地	-10.5054
害	-10.5055
十三日	-10.5056
리종	-10.5059
)‖	-10.5062
체육	-10.5063
五日	-10.5064
▁말한다	-10.5065
以後	-10.5067
없어	-10.507
엇지	-10.5071
신호	-10.5074
주재소	-10.5078
▁反	-10.5078
유치원	-10.5079
쳤다	-10.5079
62	-10.5079
앞에서	-10.5083
▁사람은	-10.5083
建	-10.5085
▁右	-10.5089
▁만약	-10.5098
▁이십일	-10.5098
따라	-10.51
과정에서	-10.5101
할수없다	-10.5105
共產黨	-10.5106
▁敵	-10.5108
집행	-10.5109
兒	-10.511
坪	-10.511
십오일	-10.5115
群山	-10.5116
될것	-10.5125
保護	-10.5127
십팔	-10.5128
뿐이다	-10.5129
兒童	-10.5135
강조	-10.5138
경향	-10.5139
긍	-10.514
경찰관	-10.5142
편으로	-10.5143
▁발표했다	-10.5144
▁전시	-10.5148
말이	-10.5152
삭	-10.5152
참여	-10.5154
회전	-10.5159
자유당	-10.5161
滿洲	-10.5163
집중	-10.5165
▁다음과	-10.5166
盧	-10.5169
내어	-10.5175
만환	-10.5175
십이일	-10.5178
▁종래	-10.5179
배치	-10.5182
공산	-10.519
일칠	-10.519
주의를	-10.5191
해산	-10.5193
▁현재의	-10.5194
할사	-10.5195
▁범인	-10.5196
개회	-10.5199
惠	-10.5202
스며	-10.5204
사찰	-10.5206
개량	-10.5209
복구	-10.521
가스	-10.5212
로이타	-10.5216
자들은	-10.5218
특수	-10.5219
불란서	-10.5222
▁열리는	-10.5222
機構	-10.5223
정치적	-10.5225
모씨	-10.5225
施行	-10.5229
꺼	-10.523
▁얘기	-10.5231
72	-10.5231
플	-10.5233
주민	-10.5233
아프리카	-10.5236
▁특수	-10.5239
44	-10.5241
인수	-10.5243
▁이루	-10.5243
▁재정	-10.5245
더라도	-10.5247
補	-10.5247
▁동양화	-10.5248
스나	-10.5248
▁일일	-10.5251
か	-10.5251
뇌	-10.5251
하겟다	-10.5251
하지아니	-10.5252
범죄	-10.5252
수단	-10.5253
당국에	-10.5254
분규	-10.5255
題	-10.5255
豊	-10.5258
珍	-10.5259
작업을	-10.5259
倍	-10.526
보안	-10.5261
▁决定	-10.5262
조성	-10.5265
삼년	-10.5266
處理	-10.5266
注目	-10.5266
클럽	-10.5268
나와	-10.5271
終	-10.5274
안주	-10.5274
했을	-10.5275
三等	-10.5275
교원	-10.5275
소리가	-10.5278
할뿐아니라	-10.528
▁여기	-10.5282
표준	-10.5283
소설	-10.5284
▁받았다	-10.5289
稱	-10.5289
부상	-10.5293
駐	-10.5294
형세	-10.5298
注意	-10.5299
寄	-10.5301
종목	-10.5308
▁자긔	-10.5308
금액	-10.5309
좋은	-10.531
民衆	-10.5321
침입	-10.5325
▁조각	-10.5327
해상	-10.5327
差	-10.5328
셈	-10.5332
문뎨	-10.5334
▁제대로	-10.5335
▁밝히고	-10.5337
,『	-10.5337
參	-10.534
관세	-10.534
지않은	-10.5345
▁개시	-10.5347
창고	-10.535
센	-10.5353
공포	-10.5354
불안	-10.5362
▁보이고	-10.5362
狀况	-10.5363
布	-10.5363
52	-10.5366
있는것이다	-10.5366
함니다	-10.5366
42	-10.5373
위로	-10.5374
▁건강	-10.5374
▁시행	-10.5374
연한	-10.5374
▁주로	-10.5376
振	-10.5377
팔월	-10.5377
32	-10.5379
땅	-10.538
昨年	-10.5381
사라	-10.5381
▁即	-10.539
階級	-10.5393
│	-10.5394
筆	-10.5397
???	-10.5397
주식	-10.5399
대통령과	-10.5406
쓴	-10.5406
▁김영	-10.5407
어선	-10.5408
향상	-10.5408
一〇	-10.5412
臨	-10.5413
▁발언	-10.5414
生命	-10.5415
▁40	-10.5418
貸出	-10.5419
形勢	-10.5419
▁비록	-10.542
상황을	-10.5423
▁청와대	-10.5426
▁신청	-10.5426
競技	-10.5428
쪽으로	-10.5429
目	-10.5429
삼구	-10.5432
▁예정이다	-10.5435
완성	-10.5439
된것	-10.5441
십구일	-10.5442
백화점	-10.5443
該	-10.5443
도라	-10.5443
서면	-10.5445
입학	-10.5446
볼수	-10.5446
▁보장	-10.545
붓	-10.5451
하면서도	-10.5453
검찰	-10.5453
이칠	-10.5456
안은	-10.5457
비로	-10.5457
48	-10.5458
交通	-10.546
경주	-10.546
이라는데	-10.5461
康	-10.5461
酒	-10.5465
가입	-10.5468
復	-10.5469
노조	-10.5473
時期	-10.5476
▁마음	-10.5478
서기	-10.548
政黨	-10.5481
하엿다한다	-10.5481
資	-10.5486
를가지고	-10.5486
물자	-10.5486
十六	-10.549
종래	-10.5493
▁비해	-10.5495
정도로	-10.55
범위	-10.5502
회의실에서	-10.5502
을받고	-10.5505
심을	-10.5507
▁행사	-10.551
도중	-10.551
▁전반	-10.5513
▁소련의	-10.5516
일명	-10.5518
놓은	-10.5518
부내	-10.552
供給	-10.5522
오백	-10.5524
▁주택	-10.5528
한다는것은	-10.553
인민	-10.553
三四	-10.5533
여사	-10.5538
통화	-10.5539
법률	-10.554
章	-10.554
收入	-10.5541
▁보아	-10.5542
표를	-10.5544
소득	-10.5546
강원	-10.5547
▁차지	-10.5551
造	-10.5551
상으로	-10.5554
범인	-10.5555
▁만들	-10.5558
▁끝	-10.5559
에의해	-10.5561
呈	-10.5562
횡	-10.5562
하게되어	-10.5562
▁繼續	-10.5563
김성	-10.5565
겠다는	-10.5565
每	-10.5566
▁현행	-10.5569
조각	-10.5569
아마	-10.557
공보	-10.5572
명중	-10.5573
從來	-10.5574
억원을	-10.5577
▁불법	-10.5578
許可	-10.5579
▁채택	-10.5581
一致	-10.5581
▁자못	-10.5583
도서관	-10.5585
언도	-10.5585
▁經濟	-10.5587
▁전했다	-10.559
짜	-10.5591
▁잇다	-10.5591
十八	-10.5593
주요	-10.5594
·○○	-10.5599
것처럼	-10.5601
발언	-10.5603
▁本	-10.5605
▁드디어	-10.5605
단은	-10.5605
금리	-10.5607
순경	-10.561
▁원래	-10.5611
▁거쳐	-10.5611
私	-10.5613
▁전후	-10.5615
▁연기	-10.5618
88	-10.562
삼원	-10.5621
된다는	-10.5622
케하는	-10.5626
▁치료	-10.5627
▁걱정	-10.5628
目標	-10.5628
▁올라	-10.5632
징역	-10.5638
하리라더라	-10.5639
엇는데	-10.564
수석	-10.564
지방법원	-10.5641
▁책	-10.5643
▁못한	-10.5645
▁여기서	-10.5646
소를	-10.5647
重大	-10.5647
朱	-10.5648
김천	-10.5649
판지	-10.5653
화재	-10.5655
상환	-10.5655
저서	-10.5656
할수가	-10.5657
39	-10.5659
장사	-10.5662
의견	-10.5663
장성	-10.5663
强硬	-10.5663
▁정신	-10.5665
이되어	-10.5666
旭	-10.5668
▁결	-10.5668
이름	-10.5669
만원을	-10.5672
▁京城	-10.5673
철수	-10.5674
次官	-10.5675
▁일시	-10.5677
開發	-10.5683
蘭	-10.5683
시인	-10.5685
지않	-10.5685
사월	-10.5692
자살	-10.5692
전망	-10.5694
상인	-10.5696
着手	-10.5697
핵	-10.57
十七	-10.57
▁검찰은	-10.57
▁강구	-10.5701
76	-10.5701
재건	-10.5702
▁社會	-10.5703
장치	-10.5703
노코	-10.5705
등록	-10.5705
合計	-10.5707
일새벽	-10.571
金額	-10.5713
消息通	-10.5715
思	-10.5715
전투	-10.5715
할수업는	-10.5715
▁체	-10.5718
적용	-10.5724
▁철	-10.5724
▁모른다	-10.5724
적은	-10.5725
宣	-10.5726
일사	-10.5727
▁수상	-10.5727
건의	-10.5731
재료	-10.5736
청구	-10.5736
二十一日	-10.5737
낭	-10.5738
▁월남	-10.5744
리동	-10.5745
▁글	-10.5747
慶南	-10.5747
단위	-10.5749
할것인가	-10.5749
세로	-10.575
부통령	-10.5752
오히려	-10.5753
▁전쟁	-10.5758
이십팔일	-10.5759
금번	-10.5765
산면	-10.5766
▁벌	-10.5767
命令	-10.577
단의	-10.577
극히	-10.5771
▁米國	-10.5773
대표는	-10.5777
청주	-10.5779
▁협력	-10.578
减少	-10.5784
▁바란다	-10.5784
이십이일	-10.5784
게된	-10.5784
대동	-10.5787
주임	-10.5789
경히	-10.5792
○○|	-10.5795
▁조정	-10.5801
交換	-10.5805
하는바이다	-10.5818
要請	-10.582
亨	-10.5823
産	-10.5825
옷	-10.5825
구락부	-10.5826
民主黨	-10.5826
대만	-10.583
인식	-10.5833
산하	-10.5833
五月	-10.5836
資本	-10.5837
る	-10.5841
철학	-10.5841
엇던	-10.5844
형제	-10.5847
수업	-10.5849
레이건	-10.5849
선발	-10.5854
정식	-10.5854
에관하야	-10.5855
환자	-10.5855
▁처	-10.5855
▁동교	-10.5858
키위하야	-10.5858
저가	-10.5859
▁무역	-10.5859
업고	-10.5859
情報	-10.586
理事	-10.5862
군과	-10.5864
▁긔	-10.5865
정지	-10.5868
58	-10.5868
▁/	-10.5869
消費	-10.587
법인	-10.5873
際	-10.5873
종로	-10.5873
需要	-10.5873
돌아	-10.5874
유리	-10.5877
▁再	-10.5879
▁現	-10.588
敏	-10.5882
지주	-10.5883
대화	-10.5884
세가	-10.5886
▁의미	-10.5888
異	-10.5888
이구	-10.5889
禹	-10.5892
개월간	-10.5893
財產	-10.5895
▁보호	-10.5897
참석	-10.59
몬	-10.59
치안코	-10.59
地區	-10.5906
47	-10.5907
▁昨年	-10.5907
▁대신	-10.5909
저녁	-10.5909
하다더라	-10.591
御	-10.5911
▁역사	-10.5917
味	-10.5918
운운	-10.5922
무관	-10.5928
수색	-10.5928
이라하며	-10.5928
국무총리	-10.5929
▁만주	-10.593
▁점차	-10.593
이것이	-10.5931
셰	-10.5933
防止	-10.5934
▁언급	-10.5935
從	-10.5936
하였	-10.5937
음을	-10.5939
캐	-10.5939
▁조성	-10.5939
지로	-10.5939
십삼	-10.5942
▁作	-10.5943
십일일	-10.5948
붕	-10.5949
자리에	-10.5951
木浦	-10.5951
파의	-10.5955
今年	-10.5956
土地	-10.5956
▁나서	-10.5956
▁아무	-10.5957
는대	-10.5959
噸	-10.5959
球	-10.5962
섯	-10.5964
육백	-10.5967
43	-10.5967
岡	-10.5969
국경	-10.597
했	-10.597
開城	-10.5972
61	-10.5973
쥐	-10.5973
諸氏	-10.5979
▁아울러	-10.5979
何	-10.598
리상	-10.5982
寬	-10.5983
기부	-10.5984
77	-10.599
입장	-10.599
情勢	-10.5992
연히	-10.5993
빌	-10.5993
새로	-10.5994
되도록	-10.5998
주시	-10.6
血	-10.6
▁상당히	-10.6001
인구	-10.6001
했지만	-10.6002
33	-10.6002
고보	-10.6002
見解	-10.6003
▁공급	-10.6003
쓸	-10.6008
할지	-10.6008
▁불란서	-10.6009
곳이	-10.601
결승	-10.6019
남경	-10.602
▁목하	-10.6021
관측	-10.6022
街	-10.6023
▁0	-10.6025
▁너무나	-10.6027
경찰서에	-10.6027
분석	-10.6034
▁나가	-10.6039
본다	-10.6042
잇슴으로	-10.6043
▁31	-10.6045
▁임금	-10.6045
춤	-10.6046
電話	-10.6047
▁열어	-10.605
게획	-10.6051
奬勵	-10.6051
▁사랑	-10.6052
▁洪	-10.6053
▁이에따라	-10.6054
독자	-10.6057
三〇	-10.6057
▁나타나	-10.6066
本報	-10.6066
꿈	-10.6067
擴張	-10.6069
아리	-10.6069
면에	-10.6069
단속	-10.607
▁청년	-10.6072
지급	-10.6072
▁오래	-10.6073
천만	-10.6079
의경우	-10.6081
▁많	-10.6081
공립	-10.6082
점차	-10.6082
▁프랑스	-10.6083
답변	-10.6085
문제로	-10.6087
▁맞아	-10.6087
▁한일	-10.6092
言明	-10.6092
중심	-10.6095
년까지	-10.6095
발달	-10.6099
대변인	-10.61
辭	-10.6101
가며	-10.6101
비는	-10.6102
▁신설	-10.6103
에이르러	-10.6103
조인	-10.6103
▁今日	-10.6105
리용	-10.6105
▁경찰에	-10.6107
대는	-10.6109
어업	-10.6111
단이	-10.6113
▁동원	-10.6113
▁교수	-10.6116
활발	-10.6116
▁해석	-10.6118
조합원	-10.6119
단을	-10.6123
저락	-10.6125
상점	-10.6127
기후	-10.6128
秉	-10.6131
以外	-10.6133
릿	-10.6137
덜레스	-10.6137
▁물가	-10.6138
二圓	-10.6138
藤	-10.6138
倫敦	-10.6145
하든바	-10.6147
57	-10.615
위기	-10.615
雜	-10.6153
규칙	-10.6154
하고잇는데	-10.6154
▁오직	-10.6154
召集	-10.6154
여명	-10.6157
사명	-10.6158
▁아주	-10.6162
이십일일	-10.6162
할는지	-10.6163
운용	-10.6163
마치	-10.6164
일시	-10.6168
祭	-10.6171
헛	-10.6171
▁있도록	-10.6172
印度	-10.6174
▁적은	-10.6179
서류	-10.6185
되얏다	-10.6189
渡	-10.6191
一月	-10.6191
수요	-10.6194
原則	-10.6196
54	-10.6197
79	-10.6197
改善	-10.6198
금일	-10.62
자들이	-10.6201
그러한	-10.6205
孝	-10.6205
작용	-10.6206
콘	-10.6206
리에	-10.6206
打	-10.6207
人士	-10.6208
▁자신	-10.6208
만명	-10.6211
바라	-10.6212
상당한	-10.6217
總務	-10.6217
▁악	-10.6218
김용	-10.6219
53	-10.6221
산리	-10.6222
그것이	-10.6224
▁본다	-10.6227
▁現代	-10.6229
大田	-10.6231
負擔	-10.6231
로이터	-10.6235
▁남녀	-10.6236
사람들이	-10.6236
품목	-10.6237
指導者	-10.6238
푼	-10.6239
뭇	-10.624
하기는	-10.6241
▁가능성이	-10.6242
레스	-10.6243
想	-10.6244
지못한	-10.6244
할수잇다	-10.6244
지출	-10.6245
일째	-10.6247
소화	-10.6247
위원회는	-10.6247
동지	-10.6248
總裁	-10.6249
돼야	-10.6249
태평양	-10.6251
재계	-10.6253
個人	-10.6256
不安	-10.6256
八月	-10.626
육십	-10.626
慶北	-10.6264
측에서	-10.6266
▁第	-10.6266
▁북괴	-10.6268
보험	-10.6269
二十二日	-10.627
▁환영	-10.6271
입은	-10.6273
의집에	-10.6273
박사는	-10.6274
▁침	-10.6275
불교	-10.6275
▁取	-10.6279
▁살아	-10.6279
▁없다고	-10.6281
실장	-10.6282
배당	-10.6283
、『	-10.6283
점은	-10.6283
웃	-10.6283
과거	-10.6285
들고	-10.6286
회사의	-10.6287
륜돈	-10.6287
▁있	-10.6287
하노라	-10.6291
대우	-10.6292
▁없다는	-10.6293
삼십전	-10.6295
▁않	-10.6297
水原	-10.63
支拂	-10.6301
이십칠일	-10.6301
▁논	-10.6303
트리	-10.6303
78	-10.6304
▁특	-10.6307
오월	-10.6309
하지안	-10.631
▁받	-10.631
자금을	-10.6311
컨대	-10.6314
여름	-10.6314
▁小	-10.6315
대항	-10.6316
제주	-10.6318
점에서	-10.6318
할예정	-10.632
시는	-10.6321
들여	-10.6323
오천	-10.6324
정국	-10.6325
하리라한다	-10.6329
게된다	-10.6329
▁러시아	-10.6331
지마는	-10.6334
동아	-10.6335
閣議	-10.6336
식품	-10.6337
동군	-10.6338
삼아	-10.6339
고잇다	-10.6339
遊	-10.6341
을수	-10.6347
67	-10.6348
전부터	-10.6348
각지	-10.6349
▁非	-10.6355
되었	-10.6356
法律	-10.6356
점령	-10.6356
▁60	-10.6357
允	-10.6357
이동	-10.6358
잇어	-10.6359
▁나와	-10.6361
▁없고	-10.6361
졍	-10.6362
▁개혁	-10.6363
이있다	-10.6367
六日	-10.6367
▁강원도	-10.6371
軍隊	-10.6371
지역의	-10.6379
졸업생	-10.638
삼십일일	-10.6381
사리	-10.6382
▁70	-10.6383
設	-10.6386
으므로	-10.6386
▁있기	-10.6389
監督	-10.6389
완료	-10.639
전의	-10.639
▁갖	-10.6391
에비하야	-10.6392
민중	-10.6394
홈런	-10.6397
▁성격	-10.64
▁신고	-10.6401
▁제이	-10.6402
하더니	-10.6403
지내	-10.6403
마음	-10.6404
구입	-10.6407
▁조선미술전람회	-10.6409
五圓	-10.641
▁핵	-10.641
▁여야	-10.6413
本會議	-10.6413
工場	-10.6416
▁行	-10.6417
하게되엇다	-10.6417
統	-10.6418
사립	-10.6419
▁판	-10.6421
沈	-10.6422
手段	-10.6424
億圜	-10.6428
충북	-10.6428
59	-10.6429
▁토의	-10.6432
價値	-10.6433
一日	-10.6433
諸國	-10.6436
六十	-10.6437
黑	-10.6439
自然	-10.644
▁도로	-10.6441
올라	-10.6441
공화당	-10.6445
집단	-10.6445
▁노래	-10.6448
선박	-10.6448
상회	-10.6453
▁계기로	-10.6453
▁마지막	-10.6454
防	-10.6456
중부	-10.6456
사변	-10.6459
▁있어서는	-10.646
에불과	-10.6462
農業	-10.6462
足	-10.6464
백여명	-10.6466
ᄆ	-10.6468
配	-10.6469
직업	-10.6472
사람을	-10.6472
美術	-10.6474
회의는	-10.6477
동상	-10.6477
이잇는	-10.6479
소작	-10.6479
한다음	-10.6481
게임	-10.6484
七日	-10.6485
49	-10.6485
×	-10.6485
요금	-10.6486
募集	-10.6487
(3	-10.6487
占領	-10.6487
연출	-10.6489
대령	-10.6489
광산	-10.649
▁갖는다	-10.6492
한것이라고	-10.6493
▁어린	-10.6493
▁주식	-10.6494
▁문교부	-10.6495
된것이	-10.6497
삼육	-10.6497
▁文	-10.65
삼팔	-10.6505
쪼	-10.6508
▁영향을	-10.6508
昇	-10.6509
說明	-10.6509
회견	-10.6516
가운데서	-10.6516
아니다	-10.6517
닐	-10.6517
68	-10.6519
▁국민회의	-10.6521
端	-10.6522
▁或	-10.6522
연안	-10.6524
▁파괴	-10.6525
이십전	-10.6528
▁서양화	-10.6528
廢	-10.6529
시경에	-10.6531
오오	-10.6533
내리	-10.6533
결과를	-10.6533
예선	-10.6535
공고	-10.6536
야한다	-10.6538
작곡	-10.6539
실험	-10.6539
▁흑	-10.6541
미를	-10.6541
▁일이다	-10.6545
여인	-10.6545
순서	-10.6546
始作	-10.6549
이십구일	-10.6554
광고	-10.6555
에잇서서는	-10.6555
행위를	-10.6557
주었다	-10.6557
에다	-10.6558
八日	-10.6559
다니	-10.656
할뿐	-10.656
▁변화	-10.6562
획	-10.6562
▁오늘의	-10.6563
日本人	-10.6564
▁담당	-10.6564
▁필요하다	-10.6566
종교	-10.6568
정화	-10.6569
잇스며	-10.6573
사육	-10.6575
▁이유로	-10.6577
정신을	-10.658
사와	-10.658
과같은	-10.6581
深	-10.6583
비밀	-10.6584
萬弗	-10.6586
自體	-10.6587
조사를	-10.6588
▁협조	-10.6589
일정	-10.659
기소	-10.6591
입찰	-10.6592
외무성	-10.6594
▁그날	-10.6597
다소	-10.6599
▁黨	-10.6601
券	-10.6604
경위	-10.6606
▁하지만	-10.6608
만나	-10.6608
戰線	-10.6608
亘	-10.661
契約	-10.6611
회의에	-10.6612
▁越南	-10.6612
延期	-10.6613
旨	-10.6613
▁보이는	-10.6615
역전	-10.6616
▁임시	-10.6617
▁한국인	-10.6625
▁장래	-10.663
▁이때	-10.6632
人口	-10.6634
▁응	-10.6636
幕	-10.6637
奇	-10.6637
▁문학	-10.6637
연간	-10.6639
像	-10.6641
平均	-10.6641
▁실패	-10.6642
벨	-10.6647
▁경성부	-10.6649
김상	-10.6649
다운	-10.6651
▁컴퓨터	-10.6652
發達	-10.6653
하게된다	-10.6654
▁結局	-10.6656
63	-10.6657
이아니라	-10.6658
二〇	-10.6659
곽	-10.6661
▁전주	-10.6663
지식	-10.6666
認	-10.6666
칠팔	-10.6666
준비를	-10.6673
한사람	-10.6674
▁위해서는	-10.6675
잘못	-10.6677
低落	-10.668
탓	-10.668
▁표시	-10.668
二月	-10.668
▁올리	-10.6682
꾼	-10.6683
▁벌서	-10.6684
섯다	-10.6685
하지않	-10.6694
一名	-10.6697
시기	-10.6699
廢止	-10.6701
강좌	-10.6702
附近	-10.6702
期間	-10.6702
없다고	-10.6702
▁먹	-10.6706
증진	-10.6708
成績	-10.6709
선수권대회	-10.6711
除	-10.6711
處分	-10.6716
자에게	-10.6717
▁사건	-10.6718
二日	-10.6719
전이	-10.6719
연구원	-10.6724
京取	-10.673
민간	-10.673
순천	-10.673
폭발	-10.6731
오분	-10.6733
69	-10.6736
혐의	-10.6736
ᄀ	-10.6737
材料	-10.6737
全南	-10.6738
되리라고	-10.6738
취인	-10.6738
임원	-10.6739
차가	-10.6739
▁당선	-10.6739
삼삼	-10.674
群	-10.6741
完全	-10.6741
동교	-10.6747
段	-10.6748
대륙	-10.6748
을위하여	-10.6752
것이므로	-10.6752
最高	-10.6753
할가	-10.6753
司	-10.6757
割	-10.6759
경성부	-10.676
養	-10.676
71	-10.6763
64	-10.6763
우에	-10.6763
연극	-10.6764
曹	-10.6764
예방	-10.6764
야할	-10.6766
이론	-10.6768
재판	-10.6769
이잇서	-10.6774
정도의	-10.6777
넘어	-10.6778
十四日	-10.6779
세관	-10.6781
의식	-10.6781
南京	-10.6781
▁시장	-10.6781
복지	-10.6783
▁그것	-10.6787
▁격	-10.6791
▁일대	-10.6792
측에	-10.6793
▁혼	-10.6793
사령부	-10.6794
클	-10.6795
것인지	-10.6797
▁강조했다	-10.6798
模	-10.6798
청진	-10.68
버린	-10.6802
볼때	-10.6802
빨	-10.6804
통합	-10.6807
수리조합	-10.6808
▁등장	-10.6808
彈	-10.681
긴장	-10.6815
전적	-10.6819
▁위험	-10.6819
사건으로	-10.682
대금	-10.6821
▁대비	-10.6822
農村	-10.6823
▁今後	-10.6825
▁자살	-10.6825
여서	-10.6827
때마다	-10.6829
當局者	-10.6832
▁수립	-10.6834
잇스나	-10.6836
모를	-10.6841
위체	-10.6841
책임자	-10.6841
▁토지	-10.6842
智	-10.6843
벤	-10.6844
演	-10.6846
결혼	-10.6846
空軍	-10.6849
▁단행	-10.6851
加入	-10.6851
外國	-10.6853
▁어제	-10.6854
합계	-10.6857
擴大	-10.6858
▁제안	-10.6859
배구	-10.6862
咸興	-10.6866
▁투	-10.6868
증대	-10.6868
양호	-10.6869
에와서	-10.687
▁매년	-10.6873
안동	-10.6873
▁의사	-10.6879
▁此	-10.6881
때까지	-10.6883
▁입장을	-10.6883
읍니다	-10.6886
시쯤	-10.6886
▁재산	-10.6886
식이	-10.6888
주로	-10.6889
▁아파트	-10.6891
미곡	-10.6891
바람	-10.6891
잡지	-10.6895
간섭	-10.6896
▁빚	-10.6896
▁소화	-10.6899
공사를	-10.6901
린다	-10.6904
工塲	-10.6906
백림	-10.6908
통계	-10.6909
것이아니라	-10.6909
킨	-10.6911
또다시	-10.6911
▁상대로	-10.6912
▁얻어	-10.6914
년전에	-10.6916
이십삼일	-10.6916
받	-10.6922
압박	-10.6922
形式	-10.6922
지금까지	-10.6925
寫眞	-10.693
漁	-10.6931
助	-10.6932
劉	-10.6932
99	-10.6933
장교	-10.6934
▁기념	-10.6938
監	-10.6939
만으로	-10.694
▁정보	-10.694
터인데	-10.6945
▁스나	-10.6945
▁다수	-10.6946
하여야한다	-10.6949
▁강경	-10.695
에대해서	-10.695
交	-10.6951
▁자주	-10.6953
촬영	-10.6958
취조	-10.6961
치못하고	-10.6962
을때	-10.6962
休	-10.6963
▁나온	-10.6964
▁있지만	-10.6966
십년	-10.6966
쳔	-10.6968
鑛	-10.6969
조선의	-10.697
誠	-10.6974
간사	-10.6979
제정	-10.6979
▁상호	-10.6981
十六日	-10.6982
41	-10.6984
전체	-10.6984
▁절	-10.6984
講究	-10.6986
파출소	-10.6986
地主	-10.6986
▁골	-10.6988
四日	-10.6992
긴급	-10.6994
佛蘭西	-10.6994
台	-10.6995
危機	-10.6995
는등	-10.6998
원인은	-10.7
▁가능	-10.7002
勞働者	-10.7002
법의	-10.7002
叺	-10.7003
四月	-10.7005
되엇	-10.7006
각료	-10.7007
▁其他	-10.7011
에관하여	-10.7019
김동	-10.7021
치어	-10.7021
51	-10.7021
宰	-10.7022
요인	-10.7023
三九	-10.7023
이십오	-10.7024
고말	-10.7025
商業	-10.7027
▁이후	-10.7028
든바	-10.7037
학회	-10.7038
班	-10.7041
첨	-10.7042
이십오일	-10.7042
성진	-10.7045
공주	-10.7047
辛	-10.7051
保障	-10.7051
移	-10.7052
▁답변	-10.7052
매수	-10.7053
▁필요가	-10.7053
삼천	-10.7057
수행	-10.7057
五百	-10.7059
▁卽	-10.706
龍山	-10.7063
▁존재	-10.7063
▁않았	-10.7063
되는것은	-10.7064
리병	-10.7064
▁써	-10.7064
원수	-10.7064
▁이와같이	-10.7065
시위	-10.7066
物價	-10.7066
회담에서	-10.7067
사법	-10.7067
쟁	-10.7068
산동	-10.7073
소송	-10.7073
續	-10.7074
▁페	-10.7075
野球	-10.7075
亦	-10.7075
물질	-10.7077
재개	-10.7079
一人	-10.7086
부로	-10.7086
심판	-10.7087
企業	-10.7088
셀	-10.7088
去來	-10.709
兩氏	-10.709
○○○	-10.7092
하기로하고	-10.7092
▁탈	-10.7094
기일	-10.7095
全國	-10.7097
族	-10.7097
안타	-10.7098
기분	-10.7099
▁불러	-10.7099
융자	-10.7101
▁주인	-10.7102
연습	-10.7106
▁부상	-10.7106
▁지도	-10.7107
特殊	-10.7108
방해	-10.7108
하얏다는데	-10.7109
십육일	-10.7111
리어	-10.7111
광동	-10.7114
て	-10.7115
▁미리	-10.7117
▁一部	-10.7117
앙등	-10.7119
▁孫	-10.712
大衆	-10.712
동부	-10.712
자긔	-10.7123
이잇고	-10.7123
통치	-10.7128
▁정식	-10.7128
▁國家	-10.7129
어떠한	-10.7132
九月	-10.7132
人事	-10.714
식으로	-10.7147
오명	-10.7147
것과	-10.7147
短	-10.7148
▁나오	-10.7149
管	-10.7151
一點	-10.7152
漸次	-10.7152
十一日	-10.7152
마당	-10.7154
월남	-10.7154
東新	-10.7157
번째	-10.7157
들어가	-10.7159
행동	-10.716
內外	-10.7163
修	-10.717
속히	-10.7171
원정	-10.7171
효과	-10.7174
三八	-10.7175
▁꽃	-10.718
되엿는데	-10.718
수로	-10.7182
이원	-10.7183
▁사람의	-10.7183
▁advertisement	-10.7183
現象	-10.7184
▁높	-10.7186
일에는	-10.719
강릉	-10.719
연초	-10.7192
에잇어서	-10.7193
정원	-10.7193
기본	-10.7197
關稅	-10.7197
교육을	-10.7197
을통해	-10.7199
할때에	-10.7202
基礎	-10.7202
積	-10.7202
지방의	-10.7204
되기를	-10.7207
▁任	-10.7211
運營	-10.7212
분이	-10.7212
문젯에	-10.7212
유도	-10.7214
할수업다	-10.7214
官吏	-10.7215
대교수	-10.7217
해방	-10.7217
▁삼일	-10.7218
철폐	-10.7218
▁소집	-10.7218
▁兩	-10.7221
중이던	-10.7222
納	-10.7223
▁유엔	-10.7227
액은	-10.7229
▁제한	-10.7229
▁몰	-10.7229
▁터	-10.7229
하랴는	-10.723
보인다	-10.723
재원	-10.7231
▁김대중	-10.7231
강원도	-10.7233
리를	-10.7237
▁넘	-10.7237
책임을	-10.7242
三二	-10.7243
▁한달	-10.7243
셋	-10.7244
북부	-10.7244
차량	-10.7245
한바에	-10.7246
▁놓고	-10.7247
毛	-10.725
있지만	-10.725
公使	-10.725
十七日	-10.7251
머리	-10.7251
발포	-10.7251
전력	-10.7252
▁한때	-10.7252
▁만든	-10.7254
졸업	-10.7258
被	-10.7259
十一月	-10.7259
점에	-10.726
얼마나	-10.7261
불하	-10.7265
會合	-10.7266
곡물	-10.7267
하여서	-10.7268
74	-10.727
표시	-10.7272
▁래	-10.7273
잇게	-10.7274
싱	-10.7274
二十五	-10.7282
빛	-10.7282
인원	-10.7284
선거구	-10.7285
포항	-10.7285
第十	-10.7286
하였다는	-10.7287
鹽	-10.7288
선출	-10.7289
확립	-10.729
상주	-10.729
것이라한다	-10.7292
나리	-10.7292
物資	-10.7292
活	-10.7293
일아침	-10.7294
시까지	-10.7296
▁신민당	-10.7299
강사	-10.7299
▁협상	-10.7299
▁진출	-10.73
▁지급	-10.7301
壯	-10.7307
안해	-10.7308
▁삼성	-10.731
改	-10.7313
신사	-10.7313
楊	-10.7314
변화	-10.7314
진남포	-10.7314
伴	-10.7315
▁보여	-10.7317
新設	-10.7319
대표단	-10.732
영동	-10.7323
시설을	-10.7323
상당	-10.7325
전달	-10.7325
달라고	-10.7326
넘	-10.7327
▁강력한	-10.7328
고잇는	-10.7339
차는	-10.734
회수	-10.734
출현	-10.734
자들의	-10.7341
백억원	-10.7344
받는	-10.7346
지점장	-10.7346
추천	-10.7347
달리	-10.7348
▁걸	-10.7349
▁누구나	-10.7353
뽀	-10.7356
▁말이	-10.7356
|▼|	-10.7356
歸國	-10.7357
經費	-10.7357
상원	-10.736
물론	-10.736
십원	-10.7363
全北	-10.7364
이야	-10.7369
나타나	-10.737
何等	-10.7373
▁결의	-10.7374
▁충분히	-10.7375
▁삼십일	-10.7375
▁취급	-10.7375
사기	-10.7376
어린	-10.7381
섬유	-10.7382
사람들은	-10.7382
녕	-10.7382
사전	-10.7382
▁안전	-10.7384
▁실제	-10.7385
왈	-10.7385
建築	-10.7386
十九	-10.739
지게	-10.7396
作家	-10.74
▁출전	-10.7401
祥	-10.7404
교양	-10.7405
겁	-10.7406
休戰	-10.7407
豫	-10.7408
視察	-10.741
咸	-10.7411
절약	-10.7413
에걸친	-10.7415
▁아마	-10.7417
하고있어	-10.7417
사건에	-10.7419
二十八	-10.742
분배	-10.7427
오육	-10.743
신흥	-10.7431
減	-10.7431
발송	-10.7432
玄	-10.7437
파란	-10.7437
▁蘇	-10.7438
▁좌	-10.7438
서독	-10.744
관광	-10.744
감정	-10.7441
면에서	-10.7442
▁주목	-10.7442
▁시도	-10.7443
틈	-10.7444
넣	-10.7446
군축	-10.7446
시사	-10.7451
몇	-10.7452
科學	-10.7453
▁選擧	-10.7454
▁대체로	-10.7454
警戒	-10.7454
민정당	-10.7457
극동	-10.7461
十八日	-10.7463
매일	-10.7466
▁해당	-10.7468
치를	-10.747
었으나	-10.7471
六月	-10.7471
위치	-10.7474
刊	-10.7475
하든중	-10.7477
젼	-10.7477
연구회	-10.7478
할수잇는	-10.7479
득점	-10.748
▁마치고	-10.748
보전	-10.7481
武器	-10.7482
왜	-10.7483
爲替	-10.7483
자문	-10.7485
종류	-10.7486
▁승리	-10.7487
五六	-10.7487
해진	-10.7489
金昌	-10.749
됩니다	-10.7492
당선	-10.7494
▁좋다	-10.7497
▁벌써	-10.7498
뻐스	-10.7502
하는것으로	-10.7504
삼명	-10.7506
는것도	-10.7507
▁질문	-10.7507
종신	-10.7508
북방	-10.7508
作成	-10.7508
三圓	-10.7509
중요한	-10.751
곤난	-10.7511
밭	-10.7512
▁방송	-10.7515
서서	-10.7517
係	-10.7519
▁만흔	-10.7521
지않아	-10.7522
사등	-10.7523
삼칠	-10.7523
칠월	-10.7524
전과	-10.7524
질을	-10.7525
춘천	-10.7529
型	-10.753
펜	-10.7531
亞細亞	-10.7532
장에	-10.7532
▁출연	-10.7533
有志	-10.7533
안보	-10.7536
結	-10.7537
▁풀	-10.754
배를	-10.7541
▁가져	-10.7543
대두	-10.7547
▁공산	-10.7548
合意	-10.7548
葉	-10.7549
일행	-10.7553
랜드	-10.7555
男女	-10.7556
▁비로소	-10.7558
쏘	-10.7558
중이라더라	-10.7561
雪	-10.7561
▁全國	-10.7563
鍾路	-10.7563
▁독자	-10.7569
십일월	-10.757
略	-10.7572
으로하여금	-10.7575
▁패	-10.7575
▁주민	-10.7575
건강	-10.7576
가진	-10.7579
▁開催	-10.758
鬪爭	-10.7582
합병	-10.7582
재판소	-10.7585
운동의	-10.7585
買上	-10.7587
▁선언	-10.7589
스카	-10.7592
個國	-10.7593
뿐만	-10.7593
지정	-10.7595
飛	-10.7596
考慮	-10.7597
▁가까운	-10.76
은물론	-10.76
과목	-10.76
▁땅	-10.7601
김정	-10.7601
직을	-10.7601
完成	-10.7604
났	-10.7605
투수	-10.7606
陣	-10.7611
법원	-10.7611
導入	-10.7612
무한	-10.7614
어떻게	-10.7614
帝	-10.7615
居	-10.7615
▁아니고	-10.762
依然	-10.7621
적을	-10.7622
終了	-10.7627
기능	-10.7627
虎	-10.763
이외에	-10.763
과세	-10.763
三十日	-10.7632
백미	-10.7633
모양이다	-10.7634
金利	-10.7637
取引	-10.7637
털	-10.7637
▁꿈	-10.7638
전환	-10.7638
▁畵	-10.7638
▁농민	-10.7639
기만	-10.764
치못한	-10.7642
定期	-10.7643
▁맺	-10.7645
▁얼굴	-10.7648
됐	-10.765
▁기초	-10.7653
총독	-10.7654
태랑	-10.7656
남부	-10.7657
일곱	-10.766
投資	-10.7661
▁볼수	-10.7661
가있다	-10.7662
그만	-10.7662
73	-10.7663
시대에	-10.7664
군내	-10.7667
陳	-10.7669
파는	-10.767
사구	-10.7672
안으로	-10.7673
하엿든바	-10.7674
▁본보	-10.7674
구주	-10.7677
지역에	-10.7678
일년	-10.7679
얼마	-10.768
리라	-10.768
締結	-10.7681
戰鬪	-10.7681
할수도	-10.7683
向上	-10.7684
▁그리하여	-10.7685
구경	-10.7687
使	-10.7688
▁관리	-10.7688
봉사	-10.7688
을보고	-10.7689
상세	-10.769
들로	-10.7697
二十二	-10.7698
▁데	-10.7698
▁건축	-10.77
▁우리나라의	-10.7704
▁이래	-10.7706
존재	-10.7707
▁해마다	-10.7708
닌	-10.7712
거절	-10.7712
律	-10.7713
▁이처럼	-10.7713
방면으로	-10.7713
너무	-10.7713
▁선택	-10.7713
▁징역	-10.7716
천리	-10.7717
시키기	-10.7719
물품	-10.7721
위해	-10.7721
폭행	-10.7723
八十	-10.7726
午後	-10.7726
▁위하야	-10.7726
구형	-10.7727
▁각국	-10.7728
▁취임	-10.7728
▁努力	-10.7729
감이	-10.7729
김병	-10.7732
▁헤	-10.7733
들이다	-10.7733
△〃	-10.7734
▁뜻을	-10.7735
증수	-10.7735
누구	-10.7735
▁輸出	-10.7736
▁강제	-10.7737
75	-10.7738
양식	-10.7742
뿌	-10.7743
会	-10.7744
十二日	-10.7745
파업	-10.7746
됨	-10.7747
▁울	-10.7747
靜	-10.7748
필리핀	-10.7751
십구	-10.7757
그때	-10.7757
▁나타났다	-10.7758
再開	-10.7759
單	-10.7759
형편	-10.7759
회비	-10.776
무용	-10.776
▁있었던	-10.7761
이들	-10.7761
▁그간	-10.7763
高麗	-10.7763
男子	-10.7765
十錢	-10.7766
旣	-10.7767
▁법률	-10.7767
영향	-10.7768
목표	-10.7768
정비	-10.7771
편의	-10.7772
同意	-10.7772
▁오월	-10.7773
決	-10.7775
暗	-10.778
連絡	-10.7781
사범	-10.7781
▁한미	-10.7783
▁싸	-10.7785
▁아즉	-10.7788
九日	-10.779
폭탄	-10.779
亭	-10.7791
찬성	-10.7791
▁중단	-10.7792
國防	-10.7794
삼국	-10.7794
祖	-10.7794
있었던	-10.7796
월말까지	-10.7797
通商	-10.7798
▁대체	-10.7799
곳은	-10.7801
砲	-10.7802
박물관	-10.7803
뎜	-10.7805
김재	-10.7805
健	-10.7807
現狀	-10.7808
발을	-10.7809
하엿으나	-10.7813
병력	-10.7814
경제적	-10.7819
遺憾	-10.7821
비교	-10.7821
텰	-10.7824
靈	-10.7825
운수	-10.7826
내년	-10.7826
▁타고	-10.7828
주둔	-10.783
▁대중	-10.783
선은	-10.7831
改革	-10.7832
야만	-10.7832
▁미국이	-10.7832
잇스니	-10.7834
우편	-10.7834
▁있던	-10.7836
집으로	-10.7836
제가	-10.7837
大體	-10.7837
▁더욱이	-10.7838
전반	-10.784
▁유럽	-10.7841
二十錢	-10.7841
鑑	-10.7841
虛	-10.7842
(4	-10.7843
출회	-10.7846
持	-10.7847
고사	-10.7848
경험	-10.7853
▁大邱	-10.7854
▁회복	-10.7857
藏	-10.7858
하러	-10.7859
郭	-10.7862
▁이중	-10.7863
천진	-10.7865
진술	-10.7865
▁하오	-10.7867
▁반영	-10.7867
支持	-10.7868
부락	-10.7869
▁심사	-10.787
수준	-10.7872
與否	-10.7874
하려면	-10.7874
▁잔	-10.7874
업슬	-10.7874
道路	-10.7876
취임	-10.7877
알선	-10.7877
▁십오일	-10.788
▁신임	-10.7881
▁상해	-10.7881
歡迎	-10.7882
▁부동산	-10.7883
유월	-10.7884
가요	-10.7885
로하여금	-10.7887
배급	-10.7887
▁佛	-10.7889
修正	-10.7892
즁	-10.7893
쏟	-10.7893
닉슨	-10.7893
▁수행	-10.7895
기시작	-10.7898
겟	-10.7899
처벌	-10.7901
▁어디	-10.7904
검사는	-10.7904
人間	-10.7907
위는	-10.7908
조절	-10.7909
三六	-10.7913
推進	-10.7914
▁교환	-10.7914
북평	-10.7916
▁중소기업	-10.7917
접수	-10.7919
香	-10.792
위에서	-10.792
刑	-10.7921
에대해서는	-10.7922
이곳	-10.7922
실제	-10.7929
待	-10.7929
▁한사람	-10.7931
위성	-10.7931
▁빈	-10.7932
레바논	-10.7934
나가는	-10.7937
선동	-10.7938
보건	-10.7939
났다	-10.7939
국방	-10.7943
구월	-10.7943
취소	-10.7943
삭감	-10.7944
양국	-10.7945
그것을	-10.7947
▁來	-10.7947
▁걸어	-10.7948
폴	-10.795
일단	-10.795
함남	-10.7951
삼백	-10.7956
절도	-10.7962
여명이	-10.7966
▁작성	-10.7966
▁누가	-10.7967
옴	-10.797
86	-10.7971
장병	-10.7972
三年	-10.7973
▁대상으로	-10.7974
▁긴장	-10.7974
문젯로	-10.7974
????	-10.7975
〇〇〇	-10.7976
▁비밀	-10.7978
角	-10.7978
▁밝혀졌다	-10.7978
陰	-10.7978
양해	-10.798
un	-10.7982
였	-10.7982
월중	-10.7983
왔	-10.7984
唱	-10.7984
政局	-10.7986
원은	-10.7989
▁동일	-10.7989
▁얼마	-10.7989
北韓	-10.799
低價	-10.7992
財	-10.7992
▁자신이	-10.7992
므로	-10.7992
▁전조선	-10.7994
家庭	-10.7995
펼	-10.7995
을보면	-10.7998
▁얻	-10.7998
商品	-10.8001
▁상당	-10.8001
▁사업	-10.8002
▁뛰어	-10.8008
개조	-10.8008
운반	-10.8014
▁무기	-10.8018
신경	-10.8018
五分	-10.8019
刻	-10.8021
▁의한	-10.8022
▁조금	-10.8022
五〇	-10.8024
遺	-10.8026
방안	-10.8026
블	-10.8026
瑞	-10.8026
模樣	-10.8026
▁깨	-10.8027
▁펴	-10.8029
比較	-10.8029
심문	-10.8031
무장	-10.8031
교부	-10.8032
몸	-10.8032
三百	-10.8032
전시	-10.8034
▁88	-10.8035
김창	-10.8035
스스로	-10.8037
청소년	-10.8037
▁시정	-10.804
청산	-10.8042
졌	-10.8044
실패	-10.8046
百萬	-10.8046
▁커	-10.8047
올해	-10.8048
▁원산	-10.8049
▁여름	-10.8051
상태를	-10.8051
▁불안	-10.8052
계장	-10.8054
避	-10.8055
▁참으로	-10.8056
伯林	-10.8058
하거니와	-10.8059
▁相當	-10.806
개통	-10.806
불이	-10.8061
없었다	-10.8063
권위	-10.8064
배우	-10.8064
溪	-10.8067
▁구체적인	-10.8069
부의장	-10.807
것만	-10.8072
전용	-10.8072
리오	-10.8078
▁다음과같은	-10.8079
▁책임을	-10.808
▁시인	-10.8082
協力	-10.8082
사사	-10.8084
假	-10.8084
―	-10.8084
내여	-10.8085
을떠나	-10.8086
乘	-10.8087
▁한강	-10.8088
를위하야	-10.8089
艦	-10.809
격증	-10.809
▁진정	-10.8093
十九日	-10.8094
▁前記	-10.8094
▁동서	-10.8096
서장	-10.8096
▁해군	-10.8097
정구	-10.8097
▁촉구	-10.8097
殷	-10.8099
機械	-10.8099
▁딸	-10.8099
▁보이	-10.8104
업섯	-10.8109
랭	-10.8109
弼	-10.8109
아버지	-10.8111
한지	-10.8112
지구당	-10.8114
▁이르	-10.8116
綜合	-10.8118
대회에서	-10.8118
십이월	-10.8119
형무소	-10.812
桂	-10.812
促進	-10.812
방안을	-10.8123
설이	-10.8125
문명	-10.8125
보유	-10.8125
지어	-10.813
十二月	-10.8131
▁조선의	-10.8134
을두고	-10.8134
해석	-10.8135
불량	-10.8136
제시	-10.8139
禁	-10.8139
二百	-10.8141
首	-10.8143
석유	-10.8143
▁의식	-10.8144
京畿	-10.8145
裡	-10.8146
三七	-10.8146
햇다	-10.8146
講演	-10.8147
▁二十	-10.8148
▁배치	-10.815
럿	-10.8152
破壞	-10.8152
本社	-10.8152
▁지내	-10.8153
▁전북	-10.8154
▁맛	-10.8157
이사회	-10.8157
四等	-10.8157
선수단	-10.8159
팔십	-10.816
약속	-10.816
유한	-10.816
▁主	-10.8161
商工	-10.8161
咸南	-10.8165
슴니다	-10.8166
삼십분	-10.817
▁공연	-10.8171
으로보아	-10.8171
▁내리	-10.8173
切	-10.8175
▁눈에	-10.8178
▁북한의	-10.818
三三	-10.818
▁혁명	-10.8181
틤	-10.8183
▁主張	-10.8183
▁언제	-10.8184
▁정도	-10.8184
즐	-10.8185
사직	-10.8186
심히	-10.8186
▁금일	-10.8187
▁전람회	-10.8191
列車	-10.8195
장과	-10.8195
제재	-10.8196
▁원칙	-10.8198
橫	-10.8199
처지	-10.8199
폐회	-10.8202
技術	-10.8202
▁피해자	-10.8203
人物	-10.8205
▁이것	-10.8207
▁개성	-10.8207
주소	-10.8208
(5	-10.8208
밥	-10.8209
개교	-10.8209
▁許	-10.821
二十六	-10.821
代理	-10.8211
상호	-10.8211
출생	-10.8213
동시에	-10.8213
전혀	-10.8215
추가	-10.8216
배정	-10.8218
건너	-10.8219
被害	-10.822
밤에	-10.822
▁폐	-10.8223
하기로되엇다	-10.8224
大韓	-10.8224
완화	-10.8226
옵	-10.8227
통지	-10.8227
▁새해	-10.8228
▁고향	-10.8229
자체	-10.823
았던	-10.823
第一回	-10.8235
▁석방	-10.8236
▁돌연	-10.8236
▁미국은	-10.8237
시일	-10.8239
연료	-10.8241
▁통화	-10.8241
일층	-10.8241
所謂	-10.8245
껏	-10.8246
▁분명히	-10.8246
깃	-10.8246
日下午	-10.8249
쓰고	-10.8249
월에	-10.825
위원장은	-10.8252
▁사람들이	-10.8252
장에서	-10.8253
▁지키	-10.8253
▁포함한	-10.8256
사태가	-10.8257
뿌리	-10.8259
半島	-10.8262
존슨	-10.8263
보이는	-10.8263
▁完全	-10.8264
製造	-10.8269
현재의	-10.8273
金相	-10.8274
殺	-10.8276
농가	-10.8277
復興	-10.8279
기때문이다	-10.8281
에앞서	-10.8284
▁권력	-10.8285
▁회원	-10.8285
획득	-10.8286
동회	-10.8288
必	-10.8288
알제리아	-10.8289
▁佛蘭西	-10.829
들로부터	-10.829
忠南	-10.8291
단지	-10.8291
정책의	-10.8292
문서	-10.8296
자신의	-10.8296
登	-10.8297
인만큼	-10.8298
座	-10.8299
完了	-10.8299
세운	-10.8301
뎨일	-10.8301
표현	-10.8303
동래	-10.8305
전소	-10.8306
默	-10.8308
く	-10.8309
▁總	-10.8311
해안	-10.8315
사로	-10.8316
리아	-10.8318
典	-10.8318
중한	-10.8321
個所	-10.8322
스럽게	-10.8324
▁않으면	-10.8333
된후	-10.8333
三十錢	-10.8339
정물	-10.834
▁손을	-10.834
▁강도	-10.8342
多少	-10.8344
▁많아	-10.8346
二十九	-10.8347
는그	-10.8347
출품	-10.8349
▁이십	-10.835
자로서	-10.8354
약이	-10.8355
신축	-10.8359
▁직업	-10.8361
午前十時	-10.8363
지휘	-10.8364
女性	-10.8365
▁범죄	-10.8366
▁지난번	-10.8368
▁충남	-10.8369
됴사	-10.8369
이자	-10.837
시리아	-10.8372
집에서	-10.8373
り	-10.8373
▁미전	-10.8374
軍縮	-10.8375
올리	-10.8377
동향	-10.8378
亞	-10.8378
▁사전	-10.8383
▁방침	-10.8383
때부터	-10.8383
不振	-10.8383
김기	-10.8388
봐	-10.8388
궤	-10.8388
아직도	-10.8388
만석	-10.8388
▁대화	-10.839
警	-10.8393
단원	-10.8393
▁문제를	-10.8394
96	-10.8394
전대통령	-10.8395
꼿	-10.8395
▁민주주의	-10.8395
絕對	-10.8396
하자고	-10.8397
테니스	-10.8398
앞서	-10.8398
부하	-10.84
▁비교적	-10.84
著	-10.8401
드니	-10.8401
사십전	-10.8401
寅	-10.8402
에착수	-10.8403
▁90	-10.8403
輕	-10.8405
先生	-10.8406
▁제정	-10.8406
現代	-10.8411
關心	-10.8412
가옥	-10.8413
안성	-10.8416
▁국회의원	-10.8416
보자	-10.8416
었으며	-10.8417
▁自然	-10.8417
메달	-10.8418
출판	-10.8418
이십사일	-10.8419
▁政治的	-10.8421
매입	-10.8421
약품	-10.8426
巴里	-10.8428
가능	-10.8431
최종	-10.8431
싸움	-10.8432
延長	-10.8434
▁모집	-10.8435
▁읽	-10.8435
접촉	-10.8437
失敗	-10.8439
▁野黨	-10.8439
집회	-10.844
이잇섯	-10.844
▁부족	-10.8442
▁승인	-10.8443
신용	-10.8446
▁경고	-10.8447
덜	-10.8447
월중순	-10.8449
經過	-10.845
군인	-10.8452
계에	-10.8452
늘어	-10.8453
記錄	-10.8454
파동	-10.8455
▁현상	-10.8457
/	-10.8457
▁업무	-10.8459
▁제삼	-10.8459
례를	-10.846
先限	-10.8463
아주	-10.8465
%)	-10.8468
憂慮	-10.847
결정을	-10.8472
치못할	-10.8474
▁첫째	-10.8477
조항	-10.8477
업서	-10.8478
是	-10.8479
려관	-10.8479
사인	-10.8481
수량	-10.8486
백여명이	-10.8486
▁변경	-10.8489
컨	-10.849
▁밝히	-10.8491
장비	-10.8496
보합	-10.8497
憲法	-10.8497
주기	-10.8497
꼽	-10.8499
기미	-10.85
대원	-10.8501
▁끌어	-10.8501
출입	-10.8502
▁第二	-10.8502
보라	-10.8504
▁적발	-10.8504
閉會	-10.8504
我	-10.8505
▁이일	-10.851
▁기존	-10.851
▁아무리	-10.851
체계	-10.851
▁동양	-10.8513
하원	-10.8514
관계자	-10.8514
부에	-10.8515
최고위원	-10.8516
문제와	-10.8517
▁이들의	-10.8518
李鍾	-10.852
聞	-10.8521
발동	-10.8522
▁부모	-10.8523
이엿다	-10.8523
審査	-10.8524
될것이며	-10.8527
▁정리	-10.8528
적이	-10.8529
학생들	-10.853
김포	-10.8531
▁완전	-10.8534
당일	-10.8535
기간중	-10.8537
▁늘어	-10.8537
친선	-10.8537
意思	-10.8538
편집	-10.8538
主要	-10.8539
金永	-10.854
끄	-10.8542
회에서는	-10.8542
월초	-10.8546
강당에서	-10.8547
自動車	-10.8549
마일	-10.8551
秘密	-10.8551
▁개막	-10.8551
신부	-10.8554
▁네	-10.8556
▁極	-10.8556
인에게	-10.8556
하랴고	-10.8557
買方	-10.8557
타이	-10.8557
試	-10.8561
▁전통	-10.8563
▁한가지	-10.8566
단톄	-10.8566
▁b	-10.8571
될는지	-10.8571
國境	-10.8573
▁외국인	-10.8574
七十	-10.8575
逆	-10.8575
▁철저히	-10.8576
▁머리	-10.8576
중장	-10.8577
▁통한	-10.8577
이잇	-10.8579
총액	-10.8579
놀이	-10.8582
나오는	-10.8584
▁중대한	-10.8584
구로	-10.8586
▁시험	-10.8588
▁호소	-10.8588
▁민자당	-10.8588
랍	-10.8588
判	-10.8589
양의	-10.8592
보성	-10.8594
算	-10.8594
량을	-10.8594
今番	-10.8595
▁의문	-10.8595
평남	-10.8595
▁초대	-10.8596
▁하여금	-10.8596
▁피해	-10.8596
하엿든	-10.8597
식량	-10.8597
▁부담	-10.8599
한국의	-10.8599
敎會	-10.8601
絕	-10.8602
새벽	-10.8603
▁대규모	-10.8608
로마	-10.8611
등과	-10.8611
太平洋	-10.8612
▁폭	-10.8614
た	-10.8614
채택	-10.8619
▁개헌	-10.862
업계	-10.8621
高等	-10.8621
䇿	-10.8624
▁점에서	-10.8625
천면	-10.8625
계상	-10.8626
7%	-10.8628
비행기	-10.863
▁길을	-10.8632
되면서	-10.8633
할터인데	-10.8636
와가치	-10.8639
包含	-10.8639
▁배우	-10.864
▁상공부	-10.8641
82	-10.8642
권총	-10.8643
하게되었다	-10.8644
下院	-10.8644
▁표정	-10.8645
▁소년	-10.8647
▁이에대한	-10.8649
즉사	-10.8651
뜻을	-10.8652
▁창립	-10.8654
사장은	-10.8657
選定	-10.8657
表明	-10.8659
계를	-10.8659
할터	-10.8662
▁행동	-10.8668
영등포	-10.8672
부사장	-10.8673
▁알아	-10.8675
二年	-10.8675
▁벗어나	-10.8675
構成	-10.8676
은그	-10.8677
폴란드	-10.8678
▁바다	-10.8679
전중	-10.8679
靜物	-10.8679
하야도	-10.868
▁참석한	-10.868
▁말하는	-10.8681
경기에서	-10.8687
▁종로	-10.8687
물에	-10.8688
덧	-10.8689
十餘	-10.8689
상담	-10.8689
의견을	-10.869
▁교사	-10.869
미군	-10.8692
제기	-10.8695
▁상황	-10.8695
▁지금은	-10.8695
▁되	-10.8696
상이	-10.8696
斷行	-10.8698
일치	-10.87
의연	-10.8701
同情	-10.8701
▁kbs	-10.8703
대표자	-10.871
이상이	-10.8711
공부	-10.8711
時局	-10.8711
赫	-10.8711
▁근무	-10.8716
각서	-10.8716
제사	-10.8717
무리	-10.8718
▁심사원	-10.8718
운동이	-10.8719
에서개최	-10.872
非難	-10.8726
호가	-10.8726
단결	-10.8733
念	-10.8741
년생	-10.8741
그들은	-10.8741
표명	-10.8742
의집	-10.8744
伯	-10.8744
구구	-10.8744
婦人	-10.8745
흉	-10.8749
사항을	-10.8749
특위	-10.8749
수없는	-10.875
통고	-10.875
예비	-10.8751
當選	-10.8754
수지	-10.8757
▁농업	-10.8757
잇슴	-10.8759
讀者	-10.876
▁체결	-10.8761
가잇는	-10.8762
있음을	-10.8763
느니	-10.8765
▁있어야	-10.8765
항상	-10.8765
▁초래	-10.8768
자고	-10.8768
소녀	-10.8768
▁있음을	-10.8774
되는바	-10.8775
萬圜	-10.8776
남면	-10.8781
81	-10.8782
發見	-10.8783
▁꾀	-10.8786
양곡	-10.8786
후원	-10.8786
그곳	-10.8787
경우에는	-10.8787
대학교	-10.8789
독재	-10.8789
燦	-10.8789
85	-10.879
××	-10.879
관을	-10.8791
편성	-10.8791
하지않는	-10.8794
支店	-10.8795
조장	-10.8795
▁유감	-10.8796
醫	-10.8797
進出	-10.8801
出廻	-10.8803
세워	-10.8803
배재	-10.8807
87	-10.8807
행정부	-10.8808
물러	-10.881
宿	-10.8811
▁세워	-10.8817
▁地方	-10.8819
破	-10.8822
電氣	-10.8823
녹	-10.8824
승리	-10.8825
도착	-10.8826
잇는것을	-10.8827
성장	-10.8827
▁정기	-10.8828
▁전환	-10.8828
時日	-10.8828
▁활용	-10.8829
小說	-10.8831
홈	-10.8834
비판	-10.8835
정동	-10.8837
適	-10.8837
까닭	-10.8837
주년	-10.8837
삼성	-10.8839
진전	-10.8839
위원회의	-10.8841
타협	-10.8843
소관	-10.8844
가면서	-10.8844
당국자	-10.8845
어진	-10.8846
지않는다	-10.8846
텔	-10.8846
▁추천	-10.8847
米價	-10.8849
▁김영삼	-10.885
五五	-10.8851
露國	-10.8855
▁이룩	-10.8855
각도	-10.8857
▁주제로	-10.8861
勝利	-10.8861
▁이사	-10.8862
▁옛	-10.8865
저축	-10.8865
재경	-10.8865
▁연극	-10.8865
貫	-10.8866
技	-10.8866
경유	-10.8867
분을	-10.8868
개가	-10.8869
▁공부	-10.8872
았	-10.8878
명칭	-10.888
식물	-10.8881
확충	-10.8881
傷	-10.8882
십여	-10.8883
수록	-10.8884
홍성	-10.8884
▁[	-10.8884
融資	-10.8885
부여	-10.8886
▁음	-10.8886
팔천	-10.8887
▁보게	-10.8889
▁집권	-10.889
姬	-10.889
를열고	-10.8891
보수	-10.8891
행복	-10.8891
北平	-10.8891
리성	-10.8892
띠	-10.8897
모임	-10.8899
十五錢	-10.8899
측과	-10.89
프레	-10.8901
孃	-10.8901
亦是	-10.8902
▁김용	-10.8904
言及	-10.8904
▁평소	-10.8905
혁신	-10.8906
▁지정	-10.8907
自由黨	-10.8908
▁오르	-10.8908
▁그린	-10.8909
량이	-10.8917
대개	-10.8918
▁개방	-10.892
방어	-10.892
건조	-10.8921
말하였다	-10.8921
반드시	-10.8921
김대중	-10.8922
▒	-10.8924
귀환	-10.8925
키로했다	-10.8926
당원	-10.8926
동생	-10.8926
자리를	-10.8926
감수	-10.8928
영향을	-10.893
광경	-10.8933
▁감소	-10.8934
케하야	-10.8934
한산	-10.8934
을보게	-10.8935
형식	-10.8937
사업에	-10.8939
말은	-10.894
意義	-10.8941
끌	-10.8942
일점	-10.8945
屋	-10.8945
▁때문	-10.8946
시계	-10.8953
압수	-10.8954
洛	-10.8958
競爭	-10.8959
하고또	-10.8963
험	-10.8964
8%	-10.8967
▁나무	-10.8967
육상	-10.8967
게되어	-10.8969
三千	-10.8969
▁태도	-10.8969
기업체	-10.897
화물	-10.897
를보면	-10.8971
의사를	-10.8971
正式	-10.8973
尾	-10.898
포장	-10.8981
祚	-10.8981
사정을	-10.8984
▁메	-10.8985
변동	-10.8986
전인	-10.8987
▁모아	-10.8989
▁업	-10.8989
단식	-10.899
지배	-10.8991
▁형사	-10.8991
코치	-10.8991
輸送	-10.8993
운전	-10.8996
充分	-10.8996
▁자금	-10.8998
기회	-10.9
당면	-10.9001
후보자	-10.9001
부총재	-10.9003
▁西	-10.9004
同胞	-10.9004
경찰에	-10.9007
金正	-10.9008
취지	-10.9015
▁대회	-10.9019
▁소환	-10.9023
▁시사	-10.9023
二十四日	-10.9025
년을	-10.9026
財界	-10.9027
한다고한다	-10.903
천안	-10.903
붙	-10.9031
正米	-10.9032
알려	-10.9032
멘	-10.9032
83	-10.9033
안된다	-10.9033
월까지	-10.9033
주사	-10.9033
▁오일	-10.9034
공세	-10.9034
▁위해서	-10.9034
무산	-10.9034
▁놀	-10.9035
잇는것이다	-10.9036
▁연장	-10.9036
▁유리	-10.9037
땐	-10.9038
▁기자들	-10.904
▁폭발	-10.9041
工作	-10.9042
통영	-10.9046
▲"	-10.9046
손을	-10.9049
▁전면	-10.905
소식을	-10.9051
이익	-10.9051
칠십	-10.9052
공약	-10.9052
勞	-10.9055
전조선	-10.9056
▁폭력	-10.9057
▁알수	-10.9058
誌	-10.9061
에서열린	-10.9061
공모	-10.9062
베트남	-10.9063
適當	-10.9065
▁졸업	-10.9066
▁분위기	-10.9066
▁반면	-10.9067
경작	-10.9067
▁모르는	-10.907
장군은	-10.907
民主	-10.9071
ec	-10.9074
일천	-10.9074
抗議	-10.9074
아세아	-10.9074
▁김성	-10.9074
하겟	-10.9075
축하	-10.9075
▁종전	-10.9076
기위한	-10.9076
찾	-10.9076
金在	-10.9077
모아	-10.9078
위의	-10.908
하기로결정	-10.9081
▁겸	-10.9082
체육회	-10.9083
習	-10.9083
나토	-10.9085
까닭이다	-10.9086
소요	-10.9087
문젯의	-10.9088
殘	-10.909
명에게	-10.9094
나타	-10.9094
선거를	-10.9095
優勝	-10.9096
육사	-10.9097
위문	-10.9098
成功	-10.9099
금성	-10.9099
조처	-10.91
중계	-10.91
외무	-10.9102
금조	-10.9104
▁만히	-10.9104
죽은	-10.9105
착수	-10.9106
간첩	-10.9107
旅行	-10.9108
부친	-10.911
길에	-10.911
이민	-10.9111
에비하면	-10.9112
▁출국	-10.9113
븍	-10.9113
빼	-10.9114
상당히	-10.9116
▁경제적	-10.9117
베르	-10.9117
됐던	-10.9118
▁혼란	-10.9118
▁양국	-10.9119
○▲	-10.912
▁성장	-10.912
원자력	-10.9121
많다	-10.9122
▁예방	-10.9124
泉	-10.9124
一千	-10.9125
곰	-10.9126
展開	-10.9128
▁한반도	-10.913
코스	-10.9131
항가리	-10.9131
▁실천	-10.9133
▁민주화	-10.9137
판명	-10.9137
離	-10.9138
찍	-10.9139
▁묵	-10.914
房	-10.9141
이십육일	-10.9143
에따른	-10.9144
시반경	-10.9144
▁세상	-10.9144
실정	-10.9145
▁이십오일	-10.9145
사태를	-10.9149
스포츠	-10.915
하는것도	-10.9151
정정	-10.9151
▁韓日	-10.9153
퍼센트	-10.9154
보존	-10.9158
회는	-10.9159
枚	-10.9163
떨어지	-10.9164
계화	-10.9166
二十九日	-10.9167
상륙	-10.9168
당하고	-10.9169
檢	-10.9171
▁일삼	-10.9176
早	-10.9176
하신	-10.9178
썩	-10.9178
▁문제는	-10.9179
됨을	-10.9181
檢事	-10.9181
위원회를	-10.9186
떨어진	-10.9186
▁출	-10.9188
결의를	-10.9188
경고	-10.919
무대	-10.919
육오	-10.9192
▁깊은	-10.9194
聯合會	-10.9194
데이	-10.9194
恒	-10.9199
▁過去	-10.9199
▁것입니다	-10.9203
라디오	-10.9204
意識	-10.9204
병원에	-10.9206
▁여당	-10.9207
▁금지	-10.921
교포	-10.9211
提供	-10.9211
대표가	-10.9215
청와대	-10.9215
판결	-10.922
!』	-10.9221
밟	-10.9222
딘	-10.9223
卿	-10.9223
外務省	-10.9225
것이라는	-10.923
비상	-10.923
集中	-10.9232
二名	-10.9232
잇다고	-10.9236
▁수원	-10.9239
▁리대통령	-10.924
▁겪	-10.9241
문화재	-10.9241
▁달려	-10.9242
채권	-10.9244
인들이	-10.9246
계속하야	-10.9247
金東	-10.9247
전은	-10.9248
벼	-10.9249
▁하늘	-10.9252
먹는	-10.9252
宗敎	-10.9255
채용	-10.9257
차등	-10.9257
개방	-10.9259
▁무엇보다도	-10.926
삐	-10.9263
▁도전	-10.9264
물은	-10.9265
一等	-10.9266
소식통은	-10.9267
▁관심	-10.9267
京畿道	-10.9268
地帶	-10.9268
政治的	-10.9269
功	-10.9269
▁의심	-10.9269
멕시코	-10.927
부부	-10.9271
관념	-10.9272
제휴	-10.9272
▁없이	-10.9272
cm	-10.9273
고무	-10.9275
회계	-10.9275
▁反對	-10.9275
하기때문에	-10.9278
여지	-10.9279
蹴球	-10.9281
병이	-10.9283
▁동아	-10.9285
라인	-10.9285
▁투표	-10.9286
남방	-10.9288
▁고발	-10.9289
오년	-10.929
三名	-10.9291
五千	-10.9292
중독	-10.9292
인들의	-10.9294
그후	-10.9294
호의	-10.9295
행동을	-10.9295
로국	-10.9296
▁그만	-10.9298
남산	-10.9299
▁웃	-10.93
▁시국	-10.9301
越南	-10.9301
끼리	-10.9302
鍾新	-10.9302
김태	-10.9304
金鍾	-10.9305
수해	-10.9305
▁이십팔일	-10.9306
今朝	-10.9306
▁어렵다	-10.9307
고시	-10.931
이십사	-10.9311
權利	-10.9313
▁입원	-10.9314
자식	-10.9315
빌딩	-10.9317
指示	-10.9317
▁정말	-10.9318
사실은	-10.932
기독교	-10.932
▁절대	-10.9321
곳에서	-10.9321
종의	-10.9322
이라하야	-10.9322
아모	-10.9325
▁굴	-10.9327
부러	-10.9328
監視	-10.9329
旣報	-10.9329
경취	-10.933
씨외	-10.9334
▁통합	-10.9335
잡고	-10.9335
▁▲「	-10.9337
▁모임	-10.9337
▁할것이다	-10.9338
▁회사	-10.9338
樹	-10.9339
반도	-10.934
逮捕	-10.9341
주지	-10.9344
계산	-10.9344
실수	-10.9344
認定	-10.9345
규모의	-10.9345
우량	-10.9346
▁친구	-10.9347
수확	-10.935
억원의	-10.9353
되었으나	-10.9354
이같은	-10.9355
▁제의	-10.9357
조흔	-10.9357
▁됐다	-10.9357
전복	-10.9358
온다	-10.936
▁항의	-10.9362
購買	-10.9363
숫자	-10.9364
賛成	-10.9365
▁일을	-10.9365
것이요	-10.937
장면	-10.937
팔팔	-10.937
결코	-10.9373
▁내용을	-10.9373
대회는	-10.9374
實際	-10.9374
拾	-10.9375
노인	-10.9376
▁범행	-10.9376
▁자기의	-10.9379
호를	-10.9379
면민	-10.938
[	-10.9382
▁않아	-10.9382
케할	-10.9382
대위	-10.9383
하여서는	-10.9383
속으로	-10.9384
산회	-10.9386
▁총선	-10.9386
트럭	-10.9388
▁서울지검	-10.9389
▁舊	-10.9389
▁米	-10.939
▁의견	-10.939
▁작품을	-10.9391
拘束	-10.9391
출동	-10.9392
▁人間	-10.9394
대성	-10.9395
일체	-10.9398
▁도저히	-10.9399
그런데	-10.9403
광장	-10.9405
第四	-10.9406
벌서	-10.9407
▁중동	-10.9408
▁표명	-10.9408
▁열리	-10.9409
김모	-10.9409
▁언제나	-10.941
確立	-10.9413
全體	-10.9413
울산	-10.9414
魯	-10.9414
▁가입	-10.9415
이기도	-10.9416
남아	-10.9417
▁도리어	-10.9418
대행	-10.9418
▁대형	-10.9423
리스	-10.9426
一行	-10.9427
▁그곳	-10.9428
한강	-10.9428
市勢	-10.943
▁사람을	-10.943
▁동안	-10.9434
紅	-10.9435
▁總督府	-10.9436
그중	-10.9437
의무	-10.9437
lg	-10.9438
르고	-10.9438
▁못하는	-10.9439
대대	-10.9439
▁사람들	-10.9442
좌기	-10.9442
徵	-10.9442
훼	-10.9443
妥協	-10.9443
▁거래	-10.9445
서방	-10.9445
▁도망	-10.9447
부채	-10.9448
▁전자	-10.9449
倉	-10.9454
자수	-10.9455
기와	-10.9455
으로인하야	-10.9456
並	-10.9457
를위해	-10.9457
구타	-10.9458
매진	-10.9458
총선거	-10.9458
麟	-10.9459
步調	-10.9459
▁約	-10.9461
팔백	-10.9461
인력	-10.9462
이러나	-10.9463
것이었다	-10.9463
지라	-10.9464
자체가	-10.9465
인치	-10.9466
가잇서	-10.9466
▁비롯하여	-10.9468
노선	-10.947
친구	-10.9471
손으로	-10.9471
분간	-10.9473
▁의하여	-10.9474
▁륙	-10.9474
四二	-10.9474
▁사실이다	-10.9477
방에	-10.9477
▁지하	-10.9477
보고를	-10.9478
인기	-10.9481
▁묻	-10.9481
▁끝내	-10.9481
解釋	-10.9483
높은	-10.9484
장애	-10.9484
포기	-10.9485
리기	-10.9488
▁한다는	-10.9488
매장	-10.9488
▁상품	-10.9489
공정	-10.9492
학급	-10.9493
▁완화	-10.9494
爕	-10.9495
所有	-10.9495
고있는데	-10.9498
▁사진	-10.9498
여건	-10.95
四百	-10.9501
▁받는	-10.9502
토론	-10.9502
관찰	-10.9503
수표	-10.9512
됐다고	-10.9516
▁들여	-10.9517
東亞	-10.9517
片	-10.9518
당국자는	-10.9523
▁共和黨	-10.9524
제일회	-10.9524
▁무엇을	-10.9524
▁즉각	-10.9525
▁게속	-10.9525
륙십	-10.9526
육칠	-10.9527
덴	-10.9531
캐나다	-10.9531
資格	-10.9531
출연	-10.9532
▁필	-10.9532
역원	-10.9533
지역에서	-10.9534
부모	-10.9534
▁마침내	-10.9535
岸	-10.9536
効果	-10.9538
▁발휘	-10.9538
오던	-10.9538
표창	-10.954
모르는	-10.954
▁나타난	-10.9541
▁허가	-10.9541
二十三日	-10.9542
營業	-10.9543
십분	-10.9543
▁전장	-10.9544
▁둘	-10.9544
영주	-10.9545
首都	-10.9547
번디	-10.9547
支配	-10.9548
米糓	-10.9551
吿	-10.9552
지연	-10.9554
▁접수	-10.9556
지청	-10.9557
조건을	-10.9557
하게되엿다	-10.9557
배달	-10.956
して	-10.9562
▁민중	-10.9564
만해도	-10.9564
청원	-10.9564
엇고	-10.9566
국민들	-10.9568
동북	-10.957
걱정	-10.957
地位	-10.9572
대회에	-10.9572
약을	-10.9573
팔십전	-10.9574
도리	-10.9574
▁重要	-10.9574
두개	-10.9575
▁이십칠일	-10.9577
시장의	-10.9578
핀	-10.9579
▁꾸	-10.9579
계획은	-10.958
▁대상	-10.958
룩	-10.958
四九	-10.9581
상경	-10.9581
금융조합	-10.9583
▁선출	-10.9586
▁이전	-10.9588
同一	-10.9588
규제	-10.9592
마포	-10.9593
하게되는	-10.9593
공채	-10.9594
화랑	-10.9594
▁公	-10.9595
리규	-10.9597
횡령	-10.9599
▁옮겨	-10.9601
세인	-10.9601
바탕	-10.9602
調印	-10.9602
구천	-10.9602
▁방침이다	-10.9603
▁그를	-10.9603
備	-10.9605
강구	-10.9605
公開	-10.9607
佛國	-10.9607
▁길이	-10.9611
研究	-10.9613
第二回	-10.9614
금회	-10.9615
예산안	-10.9615
就任	-10.9616
▁김종	-10.9618
운전사	-10.962
말로	-10.962
킬로	-10.9621
이야말로	-10.9622
▁쉽게	-10.9622
팀은	-10.9623
▁平壤	-10.9623
다니는	-10.9623
이외의	-10.9625
▁대답	-10.9626
▁三十	-10.9626
珠	-10.9627
졔	-10.9627
▁경쟁	-10.9628
▁충	-10.9628
▁두가지	-10.9629
개막	-10.963
됨으로써	-10.963
可决	-10.9633
▁부여	-10.9634
줄을	-10.9635
▁하겠다	-10.9635
사팔	-10.9638
▁여전히	-10.9639
공기	-10.9639
사면	-10.9642
六五	-10.9643
휴전	-10.9644
삼일간	-10.9646
▁생명	-10.9646
▁반발	-10.9647
비록	-10.9649
동서	-10.9654
原料	-10.9655
할까	-10.9657
通貨	-10.9657
보증	-10.9657
廣東	-10.9658
▁범	-10.9658
하기까지	-10.9661
윈	-10.9662
배가	-10.9663
病院	-10.9667
를가진	-10.9667
可能性	-10.9668
▁파악	-10.9669
론을	-10.9669
호수	-10.9669
청년동맹	-10.9669
초과	-10.9671
먹은	-10.9672
▁印度	-10.9673
실천	-10.9673
해제	-10.9676
▁완성	-10.9677
하엿는대	-10.9678
▁일체	-10.9678
이없다	-10.9678
미술관	-10.9679
하늘	-10.968
구를	-10.968
가마	-10.968
▁구일	-10.9682
불국	-10.9683
군청	-10.9683
기생	-10.9685
팔구	-10.9687
입구	-10.9688
息	-10.9689
중대한	-10.9689
도적	-10.9691
여당	-10.9691
강연회	-10.9691
소리를	-10.9692
新義州	-10.9693
백여명의	-10.9695
징계	-10.9696
무효	-10.9697
▁완	-10.9698
飛行	-10.9699
공단	-10.97
檢討	-10.97
하엿다가	-10.9701
▁십구일	-10.9703
一方	-10.9703
거리가	-10.9703
할수는	-10.9704
有力	-10.9704
분열	-10.9704
왔던	-10.9704
바이	-10.9705
해설	-10.9705
▁일제	-10.9707
힘을	-10.9708
차별	-10.9708
▁프로	-10.9711
이십삼	-10.9712
평북	-10.9713
▁쓴	-10.9713
解放	-10.9713
引下	-10.9715
業務	-10.9717
금년도	-10.9717
▁홍콩	-10.9718
내정	-10.9718
消	-10.9719
追	-10.972
▁별로	-10.9723
서리	-10.9727
▁대해서	-10.9728
있다는	-10.9728
證券	-10.9728
遂	-10.9729
하였던것이다	-10.9731
散	-10.9731
노력을	-10.9734
▁正	-10.9736
炭	-10.9736
한가지	-10.9736
則	-10.9736
현상을	-10.9736
조종	-10.9736
指揮	-10.9737
세상	-10.9739
四十錢	-10.9739
▁대처	-10.9742
중구	-10.9742
▁번	-10.9742
▁십일일	-10.9743
마을	-10.9743
약간	-10.9743
關聯	-10.9743
겼다	-10.9744
▁그만큼	-10.9745
崎	-10.9745
얘기	-10.9746
▁이러케	-10.9747
入學	-10.9747
宅	-10.9748
전시회	-10.9749
非常	-10.975
발전을	-10.975
대통령에게	-10.9751
▁피고	-10.9754
이익을	-10.9754
擊	-10.9754
송환	-10.9757
農家	-10.9765
협의를	-10.9765
總理	-10.9765
쇄	-10.9766
一切	-10.9766
수없다	-10.9768
대여	-10.9773
의장은	-10.9774
오염	-10.9775
▁지배	-10.9777
엇더한	-10.9777
강습	-10.9778
미국은	-10.9778
진지	-10.9778
해보	-10.9778
作戰	-10.9778
司法	-10.9778
▁과학	-10.9781
▁우리에게	-10.9782
▁발표한	-10.9782
성남	-10.9782
快	-10.9782
▁●	-10.9784
八十錢	-10.9784
할필요가	-10.9786
住民	-10.9788
모자	-10.9789
공비	-10.979
▁국방부	-10.9791
된것으로	-10.9793
폭락	-10.9795
▁건물	-10.9796
증산	-10.9798
▁밝힌	-10.9798
초대	-10.9799
適用	-10.98
선이	-10.9801
시월	-10.9805
이십원	-10.9806
訪	-10.9807
▁이십사일	-10.9807
▁종교	-10.9809
▁최대	-10.981
危險	-10.981
▁소리	-10.9812
▁민정당	-10.9812
極東	-10.9814
千五百	-10.9815
安東	-10.9818
하에서	-10.9819
廷	-10.9819
계약을	-10.9819
▁일제히	-10.982
▁단독	-10.9823
仲	-10.9823
멧	-10.9824
死亡	-10.9824
상정	-10.9824
▁점점	-10.9827
되므로	-10.9828
84	-10.9831
▁위치	-10.9832
식히	-10.9832
내무	-10.9832
銃	-10.9833
92	-10.9834
▁期待	-10.9835
수습	-10.9835
전장	-10.9835
株式會社	-10.9837
보아도	-10.9838
통행	-10.9841
二十六日	-10.9842
리리	-10.9842
방향	-10.9843
▁설명했다	-10.9843
▁낙	-10.9844
한때	-10.9844
처음으로	-10.9845
對象	-10.9845
장수	-10.9847
▁자랑	-10.9848
▁李大統領	-10.9848
衝突	-10.9848
ᄋ	-10.9848
증을	-10.985
그것	-10.9852
밀양	-10.9853
支出	-10.9855
第五	-10.9855
▁전연	-10.9856
이나마	-10.9857
▁전투	-10.9858
한양대	-10.9858
計畫	-10.9862
▁이십삼일	-10.9862
묻	-10.9864
社長	-10.9864
바지	-10.9865
방법으로	-10.9866
朝鮮內	-10.9867
부근에	-10.9868
▁対	-10.9871
순회	-10.9871
이업는	-10.9871
배후	-10.9871
젓다	-10.9871
코트	-10.9872
▁要求	-10.9872
구사	-10.9872
공제	-10.9873
海州	-10.9874
명동	-10.9874
▁大統領	-10.9876
對抗	-10.9876
금속	-10.9877
四六	-10.9878
정우회	-10.9878
공예	-10.9878
정상화	-10.988
徹底	-10.988
전연	-10.9881
▁이제는	-10.9884
解散	-10.9886
前年	-10.9888
유고	-10.9889
▁재무부	-10.9889
一萬	-10.9893
라이	-10.9894
주가	-10.9894
동기	-10.9894
생활의	-10.9896
▁흔히	-10.9896
で	-10.9897
薄	-10.9897
파키스탄	-10.9898
시정	-10.9901
前途	-10.9902
향항	-10.9902
관철	-10.9903
97	-10.9904
김해	-10.9904
▁석유	-10.9905
국적	-10.991
表示	-10.9912
외무장관	-10.9912
침수	-10.9913
스런	-10.9915
성동	-10.9916
▁생기	-10.9917
비평	-10.9917
隻	-10.9917
察	-10.9918
롭	-10.9918
조지	-10.9918
원주	-10.9922
꼭	-10.9924
양군	-10.9926
용인	-10.9926
상대	-10.9928
한채	-10.9931
미터	-10.9932
국민당	-10.9934
촉구	-10.9934
상처	-10.9934
왕성	-10.9935
시간을	-10.9937
닷	-10.9939
밝혀	-10.994
▁짓	-10.9941
잡아	-10.9942
카드	-10.9942
人生	-10.9943
▁들어서	-10.9943
▁칠일	-10.9944
▁철수	-10.9946
인사를	-10.9947
▁공포	-10.9948
▁말미암아	-10.9948
▁삼십	-10.9948
▁韓美	-10.9949
豫算案	-10.995
▁지휘	-10.9951
간도	-10.9952
이하의	-10.9955
십륙	-10.9955
▁이밖에	-10.9956
▁사법	-10.9956
열린	-10.9957
일방	-10.9957
게되었다	-10.9958
四八	-10.9959
을보	-10.9959
▁十一	-10.996
김진	-10.9961
此等	-10.9964
펴	-10.9965
理論	-10.9968
동산	-10.997
대부분	-10.9972
解決	-10.9974
되었다는	-10.9975
시간동안	-10.9975
이여	-10.9976
▁가을	-10.9979
이때	-10.998
중국인	-10.9981
圈	-10.9985
緩和	-10.9986
帶	-10.9987
육천	-10.9989
舍	-10.9989
하리	-10.9989
이십칠	-10.9989
민정	-10.999
품을	-10.9993
김경	-10.9993
오전십시	-10.9995
금강	-10.9996
▁경비	-10.9997
▁지불	-10.9998
달려	-10.9999
하매	-11
상위	-11.0002
▁모여	-11.0002
있었으나	-11.0002
국회의원	-11.0002
싼	-11.0006
▁가는	-11.0006
▁심각한	-11.0007
基本	-11.0007
할것이라	-11.0008
總督	-11.001
鎭南浦	-11.0011
▁것이며	-11.0013
기선	-11.0016
▁무엇	-11.0019
佐	-11.0021
▁제외	-11.0021
▁염	-11.0024
諒解	-11.0024
하엿는바	-11.0026
회답	-11.0027
칠십전	-11.0027
함께	-11.0028
▁갑자기	-11.0028
국어	-11.003
▁사회적	-11.0031
극단	-11.0032
전매	-11.0033
운전수	-11.0033
만약	-11.0034
發起	-11.0035
전까지	-11.0035
동성	-11.0036
改良	-11.0036
▁분명	-11.0038
두어	-11.0039
부분	-11.004
임에	-11.0044
조를	-11.0045
▁빼	-11.0046
늙	-11.0049
명에	-11.0049
威脅	-11.0049
▁입학	-11.0053
중에있다	-11.0054
▁유일한	-11.0058
중동	-11.0059
▁인기	-11.0061
할것이라는	-11.0062
것만은	-11.0062
巡	-11.0062
두가지	-11.0064
물의	-11.0064
조계	-11.0064
접근	-11.0065
?????	-11.0065
▁중간	-11.0067
▁희생	-11.0068
서적	-11.0068
여명의	-11.0068
이트	-11.007
勇	-11.0072
95	-11.0072
무수	-11.0073
요망	-11.0073
알수	-11.0073
톱	-11.0074
變化	-11.0078
▁열린다	-11.0078
관중	-11.0079
교역	-11.0082
점수	-11.0083
세입	-11.0084
報吿	-11.0087
果然	-11.0088
보기	-11.009
制定	-11.009
吾人	-11.0091
수집	-11.0091
양이	-11.0091
二十七日	-11.0092
▁시대	-11.0092
▁북경	-11.0093
▁갖게	-11.0094
七八	-11.0097
재무	-11.0098
崇	-11.0098
後援	-11.01
당국이	-11.0101
農林	-11.0102
의원들은	-11.0103
豫備	-11.0105
溫	-11.0105
김홍	-11.0106
허용	-11.0109
인듯	-11.0109
▁각기	-11.0111
猛	-11.0112
있었고	-11.0113
미상	-11.0113
▁이르는	-11.0114
내기	-11.0116
▁같	-11.0117
겠지만	-11.0117
회가	-11.0119
▁훈련	-11.0119
유세	-11.0119
바든	-11.0121
▁十二	-11.0122
▁인구	-11.0122
기록을	-11.0126
▁더불어	-11.0126
법무	-11.0128
▁있는것이다	-11.013
유학	-11.0131
紀念	-11.0133
전에서	-11.0133
護	-11.0134
렁	-11.0134
○·	-11.0134
서부	-11.0136
관계자들	-11.0136
▁둘째	-11.0136
현장	-11.0137
후임	-11.0139
를통해	-11.0141
▁比	-11.0141
받았다	-11.0142
의학	-11.0142
널	-11.0145
田中	-11.0145
▁궁	-11.0145
二十八日	-11.0146
▁알려진	-11.0147
위장	-11.0148
唐	-11.015
떠나	-11.0151
모스코바	-11.0151
▁몰려	-11.0151
매기	-11.0153
▁今	-11.0154
개헌	-11.0155
영토	-11.0155
동방	-11.0155
話	-11.0156
지난달	-11.0156
여객	-11.0156
리라고	-11.0159
제도의	-11.016
문예	-11.016
x	-11.016
기원	-11.0161
기어	-11.0161
황해도	-11.0161
철저	-11.0162
후보는	-11.0162
四四	-11.0163
김씨	-11.0165
▁이유	-11.0165
망을	-11.017
一億	-11.0173
수급	-11.0173
하고도	-11.0174
▁내용	-11.0174
긔관	-11.0174
調整	-11.0177
▁위반	-11.0177
농장	-11.0177
一個	-11.0177
있읍니다	-11.0178
업다고	-11.0181
결의안	-11.0181
지장	-11.0182
발령	-11.0184
허가를	-11.0185
오팔	-11.0186
조합장	-11.0186
▁문제점	-11.0187
▁접근	-11.0187
실은	-11.0188
김룡	-11.0189
구상	-11.0191
天津	-11.0191
조선미	-11.0192
만도	-11.0192
요소	-11.0192
결승전	-11.0192
상고	-11.0194
사무관	-11.0195
푸로	-11.0198
▁일은	-11.0204
부녀	-11.0204
▁아니냐	-11.0205
로보아	-11.0206
▁혐의로	-11.0206
出現	-11.0206
고생	-11.021
시세는	-11.021
완전히	-11.0211
의원등	-11.0212
▁핵심	-11.0214
▁있었	-11.0215
▁外國	-11.0217
영원	-11.0217
▁서방	-11.0219
학생들은	-11.022
▁부탁	-11.022
선수가	-11.022
성적이	-11.0221
을받은	-11.0221
李東	-11.0223
법이	-11.0224
데다	-11.0225
▁의회	-11.0225
운명	-11.0226
중이라는데	-11.0227
執行	-11.0228
성질	-11.0229
▁그래도	-11.023
이해	-11.023
무엇	-11.0231
고말하고	-11.0233
▁검	-11.0235
이태리	-11.0235
▁멀	-11.0235
久	-11.0236
신장	-11.0237
衣	-11.0237
▁철도	-11.0238
▁현장	-11.0239
歷史	-11.0239
▁도합	-11.0239
조건으로	-11.024
薰	-11.0241
象	-11.0241
경찰부	-11.0242
후에는	-11.0243
주석	-11.0243
不可能	-11.0244
▁퇴	-11.0245
▁극동	-11.0246
성은	-11.0246
한다함은	-11.0246
축사	-11.0248
법제	-11.0249
▁마산	-11.0251
사격	-11.0252
요원	-11.0252
▁김씨는	-11.0253
▁重大	-11.0255
회에	-11.0255
랜	-11.0255
▁사일	-11.0257
청중	-11.026
발명	-11.0261
편이	-11.0264
정규	-11.0264
업섯다	-11.0265
장관이	-11.0267
(9	-11.0267
침체	-11.0268
발로	-11.0268
紀	-11.0269
문의	-11.027
에들어가	-11.027
態	-11.027
국립	-11.0271
▁연출	-11.0271
政友會	-11.0271
지않았다	-11.0273
公務員	-11.0273
있으므로	-11.0274
지방에	-11.0276
換	-11.0276
▁출마	-11.0277
혼란	-11.028
단축	-11.028
시장에서	-11.028
성격	-11.0282
位置	-11.0284
▁다섯	-11.0285
▁계획이다	-11.0285
습격	-11.0286
위안	-11.0286
얼굴	-11.0287
▁일으키	-11.0288
폭격	-11.029
補助	-11.0292
하고있으나	-11.0292
에노력	-11.0294
팽창	-11.0295
재배	-11.0296
▁빨리	-11.0297
▁공산당	-11.0298
유치	-11.0298
얼골	-11.0299
께서	-11.0299
多大	-11.03
회의가	-11.0301
이유를	-11.0301
鄕	-11.0302
辯	-11.0303
▁자체	-11.0303
將	-11.0304
總額	-11.0305
不成	-11.0305
국가들	-11.0306
봉급	-11.0306
每日	-11.0307
▁출석	-11.0311
부에서는	-11.0313
시장은	-11.0313
헌병	-11.0313
적이고	-11.0316
콩	-11.0317
除外	-11.0319
即時	-11.032
박게	-11.032
운동에	-11.0321
▁공장	-11.0322
다르	-11.0322
대인	-11.0326
칠오	-11.0326
재해	-11.0327
▁구호	-11.0328
講	-11.0328
〉,	-11.033
▁대판	-11.033
專門	-11.0331
갖	-11.0332
라스	-11.0334
자본금	-11.0335
인제	-11.0336
비율	-11.0337
▁西獨	-11.0337
阿	-11.0339
▁자리를	-11.0341
▁십팔일	-11.0343
권력	-11.0344
容易	-11.0345
▁연결	-11.0346
國內	-11.0346
전문가	-11.0346
일개	-11.0347
▁가격	-11.0349
부위원장	-11.035
여사는	-11.035
最後	-11.035
共產	-11.035
납부	-11.0351
중상	-11.0351
연사	-11.0351
함대	-11.0351
구십	-11.0352
▁서울시는	-11.0353
眼	-11.0356
▁원인은	-11.0357
일현재	-11.0357
顯著	-11.0358
겨울	-11.0358
▁百	-11.0358
됨에	-11.0358
사유	-11.0359
部門	-11.0361
念慮	-11.0362
十圓	-11.0363
鬪	-11.0363
감축	-11.0364
무사	-11.0364
육원	-11.0365
▁從來	-11.0366
하지안코	-11.0366
것임을	-11.0368
▁등록	-11.0368
지리	-11.0368
육십전	-11.0368
대결	-11.037
럴	-11.0371
旗	-11.0373
집권	-11.0374
야학	-11.0377
오칠	-11.0378
實業	-11.0378
한것이라	-11.0379
서원	-11.038
과정을	-11.0381
자재	-11.0382
▁어느정도	-11.0383
閣僚	-11.0384
싫	-11.0384
베를린	-11.0384
認識	-11.0384
果	-11.0385
學院	-11.0386
죄로	-11.0386
進展	-11.0387
산지	-11.0391
▁약간	-11.0392
野黨	-11.0392
병을	-11.0393
치않	-11.0394
▁인수	-11.0395
石油	-11.0395
且	-11.0396
到底	-11.0397
공식	-11.0398
職員	-11.04
▁김동	-11.0401
에두고	-11.0402
문교	-11.0403
感情	-11.0404
호전	-11.0405
▁건너	-11.0406
고향	-11.0406
전술	-11.0408
강제	-11.0408
표결	-11.0409
金基	-11.041
▁얼	-11.041
일억	-11.041
억제	-11.0411
흡	-11.0412
현지	-11.0414
▁소비	-11.0415
顯	-11.0416
▁공산주의	-11.0419
峰	-11.0422
二十四	-11.0422
▁답	-11.0422
否認	-11.0423
金容	-11.0423
나마	-11.0423
▁輸入	-11.0428
▁연락	-11.0429
▁정국	-11.043
상오	-11.0431
▁활약	-11.0431
러시아	-11.0432
조달	-11.0433
一層	-11.0434
옹호	-11.0434
獲得	-11.0437
▁이르기까지	-11.0437
참사	-11.044
사정이	-11.0443
결산	-11.0446
壓	-11.0447
로농	-11.0447
윤리	-11.0448
痛	-11.0448
體育	-11.0448
▁유도	-11.0449
갔	-11.0449
시간이	-11.045
검속	-11.0451
자치	-11.0451
할수있도록	-11.0453
에이어	-11.0454
普	-11.0455
선으로	-11.0455
할수없	-11.0456
>▲	-11.0458
대표이사	-11.0459
각성	-11.0459
웠다	-11.046
漸	-11.0461
肥	-11.0462
▁이르러	-11.0464
回答	-11.0464
▁눈을	-11.0465
수교	-11.0465
특전	-11.0466
아편	-11.0468
左記	-11.0468
환율	-11.0468
대일	-11.0468
家族	-11.0469
▁시위	-11.047
농림	-11.0471
할터이다	-11.0472
몃	-11.0473
▁지적했다	-11.0473
밑	-11.0475
대정	-11.0476
담배	-11.0477
편입	-11.0477
그러면	-11.0478
나머지	-11.0479
구름	-11.0481
株式	-11.0481
▁내무부	-11.0481
사형	-11.0482
編	-11.0482
忠北	-11.0483
▁平和	-11.0484
시국	-11.0484
▁선수	-11.0485
▁회견	-11.0485
一同	-11.0485
크라	-11.0486
하는중	-11.0486
보교	-11.0486
▁國內	-11.0488
부근에서	-11.0488
▁藝術	-11.0488
명치	-11.0489
에있어서의	-11.049
製作	-11.0492
自治	-11.0492
▁후보	-11.0493
▁재판	-11.0493
것이고	-11.0496
모양인데	-11.0499
세금	-11.05
顧問	-11.0501
皇	-11.0501
정상회담	-11.0502
콤	-11.0504
선포	-11.0504
▁목포	-11.0506
부총리	-11.0506
무사히	-11.0509
침략	-11.0512
己	-11.0512
云云	-11.0516
저하	-11.0517
要望	-11.0519
라이트	-11.052
함에는	-11.0524
문자	-11.0527
肉	-11.0528
증언	-11.0528
各種	-11.0529
방법은	-11.053
▁바라	-11.0531
에취하야	-11.0532
칠백	-11.0532
근로자	-11.0534
000	-11.0535
이상으로	-11.0538
▁숙	-11.0539
能力	-11.0541
▁망	-11.0542
▁通	-11.0542
緊張	-11.0542
이되고	-11.0543
구라파	-11.0544
▁지속	-11.0544
▁아모	-11.0545
식당	-11.0545
▁차라리	-11.0546
▁주고	-11.0547
▁승객	-11.0548
面長	-11.0549
▁널리	-11.055
만여원	-11.055
金泰	-11.0553
▁경험	-11.0553
서대문	-11.0554
전원	-11.0557
▁훌륭한	-11.0557
가잇	-11.0558
프라	-11.0558
오르	-11.0559
▁못했다	-11.056
▁옛날	-11.0561
認可	-11.0561
탐지	-11.0561
무시	-11.0562
萬石	-11.0562
脫	-11.0564
유감	-11.0565
을비롯한	-11.0566
일행은	-11.0566
▁막대한	-11.0567
▁진전	-11.0567
있기때문에	-11.0568
一帶	-11.0568
▁자세	-11.0568
닝	-11.0569
百萬圓	-11.0569
대사는	-11.057
로서아	-11.0573
▁生活	-11.0574
邦	-11.0574
振興	-11.0575
모양으로	-11.0576
▁실업	-11.0577
지경	-11.0577
任員	-11.0578
▁형성	-11.0579
프리	-11.0579
도주	-11.058
▁보수	-11.058
법에	-11.0581
尺	-11.0582
貸付	-11.0583
를보고	-11.0583
부서	-11.0584
있지않	-11.0588
소학교	-11.0589
업적	-11.0591
삼이	-11.0592
현상이	-11.0592
안내	-11.0593
악화	-11.0593
內務	-11.0593
取締	-11.0594
도청	-11.0595
▁역할을	-11.0595
천구백	-11.0596
압흐로	-11.0596
平南	-11.0596
違反	-11.0596
인쇄	-11.0596
대립	-11.0598
필자	-11.0598
▁관측	-11.06
▁크다	-11.0601
▁오랜	-11.0601
六七	-11.0602
스코	-11.0604
保合	-11.0604
훈장	-11.0605
실에	-11.0605
若	-11.0607
檢査	-11.0609
공간	-11.0612
▁이십구일	-11.0612
입회	-11.0612
연금	-11.0612
잇스면	-11.0612
제십	-11.0614
三十一日	-11.0615
대의원	-11.0616
듯고	-11.0617
폐기	-11.0617
現實	-11.0618
운동장	-11.0619
永登浦	-11.0622
이탈리아	-11.0623
▁일반의	-11.0623
千九百	-11.0625
될것을	-11.0626
香港	-11.0627
▁出品	-11.0628
국방장관	-11.0628
▁처벌	-11.063
눌	-11.0632
지음	-11.0633
자신이	-11.0633
인사들	-11.0634
▁불가능	-11.0635
▁시설	-11.0635
깊은	-11.0636
單位	-11.0637
다대한	-11.0638
부장판사	-11.0644
▁대응	-11.0644
정부에	-11.0644
경기를	-11.0644
감각	-11.0645
▁모두가	-11.0646
▁취소	-11.0647
음식점	-11.0647
▁돌아가	-11.0648
영향이	-11.0648
제오	-11.0648
閑	-11.0649
俱樂部	-11.0649
製品	-11.0655
이십팔	-11.0655
軟	-11.0656
▁갖추	-11.0656
二十一	-11.0656
▁사월	-11.0657
뻐	-11.0659
킬	-11.066
▁보였다	-11.0661
인생	-11.0661
孔	-11.0662
板	-11.0662
日中	-11.0665
사퇴	-11.0665
規則	-11.0666
잇으므로	-11.0669
in	-11.067
오인	-11.067
방면의	-11.067
안의	-11.0671
오만	-11.0672
▁빠져	-11.0672
요지	-11.0676
도지사	-11.0676
에게서	-11.0676
라고한다	-11.0676
▁잡아	-11.0677
春川	-11.0678
금광	-11.0679
증세	-11.0679
▁포기	-11.068
낫다	-11.068
▁사이에	-11.068
▁要	-11.068
보낸	-11.0681
불을	-11.0682
▁들고	-11.0684
森	-11.0685
든다	-11.0686
▁국립	-11.0687
형태	-11.0689
走	-11.0689
招請	-11.069
移轉	-11.069
閑散	-11.069
晋州	-11.069
▁십사일	-11.0693
말하되	-11.0696
끔	-11.0696
▁싶다	-11.07
원료	-11.0701
개인의	-11.0701
에달하는	-11.0702
저지	-11.0703
폰	-11.0703
된것을	-11.0704
남대문	-11.0704
종전	-11.0707
갱	-11.0708
郞	-11.0708
지난해	-11.0708
存在	-11.071
사절	-11.071
아니며	-11.0712
암살	-11.0713
할것이라한다	-11.0714
賀	-11.0715
期米	-11.0715
방출	-11.0716
사칠	-11.0716
수여	-11.0717
항구	-11.0718
지기	-11.0722
유산	-11.0723
郡守	-11.0724
자율	-11.0725
나니	-11.0726
共和黨	-11.0727
불법	-11.0727
당시의	-11.0727
太郞	-11.0727
치료를	-11.0729
자랑	-11.0731
▁십이일	-11.0733
회관에서	-11.0734
▁접촉	-11.0735
九十錢	-11.0738
결심	-11.0739
女史	-11.0741
散會	-11.0745
극력	-11.0747
도덕	-11.0747
압력	-11.0748
팬	-11.0748
▁구성된	-11.0748
대학원	-11.0749
李相	-11.075
일반은	-11.0752
食糧	-11.0752
▁깊이	-11.0752
됨으로	-11.0752
것이지만	-11.0752
주면	-11.0754
▁놓	-11.0754
음모	-11.0756
寳	-11.0757
篇	-11.0757
▁너	-11.0759
딱	-11.0759
壇	-11.0763
留	-11.0764
經濟的	-11.0764
장관의	-11.0765
사회당	-11.0765
금반	-11.0767
있는것은	-11.0768
되엿슴으로	-11.0771
▁사는	-11.0773
상승	-11.0777
사건과	-11.0777
액을	-11.0779
젊은	-11.078
四七	-11.078
▁本社	-11.0781
▁劉	-11.0781
▁듣고	-11.0781
▁커다란	-11.0782
스크	-11.0783
만족	-11.0783
▁지나간	-11.0783
▁가치	-11.0784
노동자	-11.0785
생명을	-11.0786
嶺	-11.0787
보담	-11.0787
哩	-11.0787
▁나오는	-11.0789
▁사장	-11.0791
오래	-11.0791
후의	-11.0792
慘	-11.0793
리재	-11.0797
卅	-11.0799
代辯人	-11.0799
▁當	-11.0799
▁굳	-11.08
▁作家	-11.0801
(6	-11.0802
기전에	-11.0803
전문학교	-11.0803
사람들	-11.0804
理事會	-11.0805
사이의	-11.0805
▁해방	-11.0805
錄	-11.0805
▁서울에서	-11.0805
巨	-11.0806
初付	-11.0806
裁	-11.0806
미사일	-11.0806
▁자료	-11.0807
난다	-11.0809
값이	-11.0811
繭	-11.0812
신문은	-11.0813
千圓	-11.0815
會舘	-11.0815
되얏	-11.0815
잇서서	-11.0815
▁傳	-11.0816
▁조기	-11.0816
▁스포츠	-11.0816
하기가	-11.0817
기위하여	-11.0819
▁혹	-11.0821
▁고위	-11.0821
▁감정	-11.0823
▁중대	-11.0825
민의	-11.0825
출장소	-11.0826
秩序	-11.0826
▁사기	-11.0827
주류	-11.0828
하엿다는	-11.0829
국채	-11.083
공헌	-11.083
영흥	-11.0831
▁공정	-11.0831
깊	-11.0832
▁★	-11.0833
方向	-11.0834
관계의	-11.0836
농지	-11.0836
京城府	-11.0839
恒常	-11.084
二等	-11.084
下午	-11.084
相互	-11.0842
▁최초의	-11.0843
연세대	-11.0844
▁구제	-11.0844
나아가	-11.0845
▁태도를	-11.0847
▁대우	-11.0848
드라마	-11.0848
되는것이	-11.0848
모델	-11.0851
피아노	-11.0851
손해	-11.0851
▁멀리	-11.0852
본다면	-11.0852
깁	-11.0853
칠원	-11.0854
국가의	-11.0854
잇는바	-11.0856
▁있게	-11.0858
▁쉬	-11.0859
뚝	-11.0861
▁힘을	-11.0861
五七	-11.0862
言論	-11.0866
체신	-11.0866
企圖	-11.0867
ない	-11.0867
▁충돌	-11.0868
前記	-11.0868
될것이	-11.0869
다더라	-11.0869
곡리	-11.087
▁나선	-11.087
많	-11.087
~3	-11.0874
의결	-11.0876
占	-11.0877
水產	-11.0877
00	-11.0877
등도	-11.0877
가잇고	-11.0879
것이오	-11.0879
백오십	-11.0879
衡	-11.088
팔원	-11.0882
델	-11.0883
총통	-11.0886
▁아닐	-11.0888
副統領	-11.0889
▁실정	-11.0889
원리	-11.089
렸	-11.0891
증인	-11.0891
영광	-11.0891
분기	-11.0891
紹介	-11.0894
비서	-11.0897
중단	-11.0898
大臣	-11.0899
▁加	-11.0901
▁십칠일	-11.0903
超	-11.0904
보를	-11.0906
▁말하면	-11.0908
한것도	-11.091
▁함남	-11.091
표면	-11.0911
賣物	-11.0912
▁고민	-11.0914
광업	-11.0916
면허	-11.0916
▁영국의	-11.0917
▁건의	-11.0917
▁선임	-11.0917
給	-11.0918
쓰는	-11.092
捕虜	-11.0922
룸	-11.0922
원래	-11.0922
▁일구	-11.0923
압헤	-11.0924
兵力	-11.0924
천여명	-11.0926
午後二時	-11.0928
▁통하여	-11.0928
필경	-11.093
부리	-11.0932
기까지	-11.0933
影	-11.0936
▁이십이일	-11.0936
萬四千	-11.0937
말썽	-11.0937
고창	-11.0939
부속	-11.0939
高普	-11.094
석을	-11.0942
▁北傀	-11.0942
▁진실	-11.0942
게되엇다	-11.0945
數量	-11.0945
법령	-11.0945
호소	-11.0946
걸어	-11.0947
십만원	-11.0948
동물	-11.0949
주력	-11.095
賛	-11.0951
수상의	-11.0953
▁재미	-11.0954
▁大體	-11.0954
航空	-11.0955
▁반입	-11.0956
89	-11.0957
게속	-11.0957
소사	-11.0958
총리는	-11.0958
대표로	-11.0958
유력한	-11.0959
속출	-11.0961
총재의	-11.0961
민속	-11.0963
▁김재	-11.0963
연령	-11.0965
년에는	-11.0966
긔념	-11.0967
▁비상	-11.0967
▁이웃	-11.0968
▁낳	-11.0969
對立	-11.0969
▁한해	-11.097
▁상오	-11.097
인류	-11.0972
生徒	-11.0972
들었다	-11.0976
直接	-11.0976
陵	-11.0977
只今	-11.0978
수재	-11.0978
출장	-11.0979
三國	-11.098
▁意味	-11.0984
민주주의	-11.0984
데서	-11.0986
제반	-11.0987
우주	-11.0987
理想	-11.0988
삼인	-11.0988
서기관	-11.0994
▁대출	-11.0995
들려	-11.0996
경상	-11.0997
▁美展	-11.0998
판단	-11.0998
▁그다음	-11.1
대략	-11.1002
끝나	-11.1002
붐	-11.1005
찻	-11.1005
슌	-11.1005
내면	-11.1006
처녀	-11.1008
▁접	-11.1009
도망	-11.101
일우	-11.101
唯一	-11.101
▁식량	-11.1011
支部	-11.1012
음이	-11.1014
군비	-11.1016
시책	-11.1017
양일간	-11.1018
▁담배	-11.1019
不可	-11.1022
共和國	-11.1022
책으로	-11.1023
▁받을	-11.1023
승객	-11.1025
▁한글	-11.1028
단기	-11.103
년이	-11.1031
휘문	-11.1031
▁시작한	-11.1033
방학	-11.1034
전보	-11.1035
▁特別	-11.1036
면서도	-11.1036
政界	-11.1037
區域	-11.1037
씨로부터	-11.1039
전차	-11.1039
원식	-11.104
살아	-11.104
▁감독	-11.1041
▁시중	-11.1043
선천	-11.1044
▁잇어서	-11.1045
▁소관	-11.1045
▁증언	-11.1046
트로	-11.1046
리창	-11.1049
▁군산	-11.1049
▁십삼일	-11.1051
본적	-11.1053
—』	-11.1053
▁좌우	-11.1055
▁가슴	-11.1055
고있으며	-11.1057
▁구상	-11.1058
窮	-11.1058
昨日	-11.1059
十年	-11.1062
팔오	-11.1065
되지아니	-11.1066
▁學生	-11.1066
지며	-11.1066
還	-11.1069
▁소설	-11.1071
고지	-11.1071
▁십육일	-11.1072
무상	-11.1074
▁報道	-11.1074
値	-11.1074
▁근거	-11.1075
되나	-11.1075
본부장	-11.1076
激	-11.1078
선택	-11.1078
이없는	-11.1079
불가	-11.1079
年前	-11.1081
군사령관	-11.1081
속도	-11.1081
되엿	-11.1083
▁이점	-11.1086
▁경찰관	-11.1087
▁끊	-11.1088
멜	-11.1089
登錄	-11.109
좌와여히	-11.1092
김순	-11.1096
중이라한다	-11.1096
하건대	-11.1097
▁다짐	-11.1098
▁시작했다	-11.1099
해주는	-11.1099
▁民主	-11.1099
정오	-11.1102
머리를	-11.1102
국회의장	-11.1103
警察署	-11.1106
아나	-11.1107
창설	-11.1107
▁감안	-11.1108
한사람이	-11.1108
과학기술	-11.1109
▁함흥	-11.1109
성군	-11.1111
七五	-11.1112
▁방위	-11.1114
가격을	-11.1116
十九錢	-11.1117
訓練	-11.1117
▁朝	-11.1122
선거법	-11.1122
보류	-11.1122
▁나섰다	-11.1122
百名	-11.1125
無視	-11.1127
하도다	-11.1128
萬一	-11.1129
推	-11.1129
▁原	-11.1131
직물	-11.1133
하락	-11.1134
적어도	-11.1136
역할을	-11.1136
기위하야	-11.1136
법정	-11.1138
▁베	-11.1138
▁臺灣	-11.1139
청장	-11.1139
▁이라크	-11.1139
臺灣	-11.1139
농후	-11.1139
약일	-11.1139
법은	-11.1139
▁압력	-11.114
▁좋아	-11.1141
사업의	-11.1142
▁나이	-11.1144
ノ	-11.1145
▁전제	-11.1145
불소	-11.1146
침해	-11.1146
▁한은	-11.1147
▁그려	-11.1148
폭력	-11.1148
신정	-11.1149
시킬수	-11.1151
정부와	-11.1151
밑에	-11.1153
▁기억	-11.1154
정전	-11.1155
龜	-11.1157
게되는	-11.1157
▁이동	-11.1158
다는것은	-11.1158
▁십이	-11.1158
▁남의	-11.1162
계엄	-11.1164
장단	-11.1165
▁재개	-11.1166
▁극복	-11.1166
신기록	-11.1167
간접	-11.1167
것이냐	-11.1168
요리	-11.1169
▁원고	-11.1169
二萬	-11.1171
五年	-11.1171
중령	-11.1171
貌樣	-11.1174
떡	-11.1174
提示	-11.1174
立場	-11.1177
경찰의	-11.1179
▁개회	-11.118
단과	-11.1181
움을	-11.1182
▁인류	-11.1183
십만	-11.1184
인들은	-11.1184
寒	-11.1187
있기	-11.1187
▁거론	-11.1188
전부가	-11.1188
가격은	-11.1189
執	-11.119
연주	-11.1191
▁이러	-11.1191
구리	-11.1191
▁주는	-11.1191
김석	-11.1194
익사	-11.1194
四圓	-11.1196
당국에서	-11.1198
보고서	-11.12
核	-11.1202
말에	-11.1202
▁국방	-11.1202
▁도주	-11.1203
參席	-11.1203
▁퍽	-11.1204
▁결승	-11.1204
육육	-11.1204
▁萬一	-11.1205
계획이	-11.1206
나간	-11.1206
비리	-11.1207
당선자	-11.1208
대련	-11.1209
▁지켜	-11.121
威	-11.1211
농사	-11.1212
▁증거	-11.1213
회담이	-11.1213
▁예금	-11.1213
▁진술	-11.1216
가면	-11.1218
俗	-11.1219
▁其	-11.1219
▁남아	-11.122
▁이곳에	-11.122
▁뽑	-11.1221
명예	-11.1221
이재민	-11.1222
▁명예	-11.1222
新興	-11.1222
▁與野	-11.1223
보상	-11.1225
▁일어난	-11.1227
譯	-11.1228
範圍	-11.1229
余	-11.123
蔡	-11.1231
을받	-11.1232
조작	-11.1233
를받고	-11.1237
▁축	-11.124
▁김상	-11.124
사리원	-11.124
藝	-11.1241
사회에	-11.1242
七十錢	-11.1244
양상	-11.1245
교육의	-11.1246
良好	-11.1247
▁목적	-11.1247
부친상	-11.1249
국은	-11.125
書記	-11.125
歐洲	-11.125
비서관	-11.1251
불명	-11.1252
▁協議	-11.1252
등에서	-11.1253
선수권	-11.1253
平北	-11.1256
되엇고	-11.1257
▁朝鮮人	-11.1257
▁바람에	-11.126
▁넓	-11.1261
이유는	-11.1261
높이	-11.1261
천여원	-11.1261
출전	-11.1261
▁사실은	-11.1261
▁대해서도	-11.1262
91	-11.1262
오전십일시	-11.1262
漢江	-11.1263
불러	-11.1264
▁뉴	-11.1265
시장에	-11.1265
金泉	-11.1265
▁생각하는	-11.1266
▁무려	-11.1267
집계	-11.1273
鎔	-11.1274
権	-11.1274
이업시	-11.1275
▁신한국당	-11.1276
▁南北	-11.1276
충주	-11.1277
희생	-11.1277
共產軍	-11.1278
▁梁	-11.1278
비서실장	-11.1279
모친상	-11.128
에게도	-11.128
본정	-11.128
김윤	-11.1281
임이	-11.1281
대안	-11.1282
에재한	-11.1283
용산	-11.1283
맘	-11.1288
蔚山	-11.1289
되었다고한다	-11.129
▁조금도	-11.1293
▁김정	-11.1294
남은	-11.1295
▁견해	-11.1297
제약	-11.1298
공소	-11.1298
▁신경	-11.1298
最大	-11.13
임은	-11.1302
▁것인가	-11.1303
준장	-11.1304
▁말해	-11.1305
동요	-11.1306
학교에	-11.1308
▁죽은	-11.1308
▁이십일일	-11.1311
이상을	-11.1312
餘地	-11.1313
▁여권	-11.1313
綿	-11.1316
事務所	-11.1317
確定	-11.1317
되지안	-11.1318
벌이	-11.1321
응원	-11.1321
업스나	-11.1323
八九	-11.1323
구십전	-11.1325
四〇	-11.1325
突	-11.1326
▁구주	-11.1327
不能	-11.1329
混	-11.133
공사는	-11.133
유기	-11.1331
서비스	-11.1331
스터	-11.1332
▁所謂	-11.1332
스니	-11.1333
기재	-11.1334
協調	-11.1334
교도	-11.1335
▁직장	-11.1335
농작물	-11.1337
實情	-11.1337
도없이	-11.1338
하여는	-11.1338
▁연행	-11.1339
▁사이	-11.134
대상자	-11.1341
二十七	-11.1341
서야	-11.1342
조용	-11.1342
을방문	-11.1342
▁在	-11.1343
과가치	-11.1344
辰	-11.1345
전부를	-11.1345
▁황해도	-11.1346
면제	-11.1349
입법	-11.1352
신탁	-11.1352
覺	-11.1352
▁엄청난	-11.1353
▁중심	-11.1353
밧는	-11.1353
센트	-11.1354
범행	-11.1355
단독	-11.1355
기피	-11.1356
翼	-11.1356
오후사시	-11.1357
▁한국은	-11.1357
▁악화	-11.1357
세력이	-11.1358
碩	-11.136
六十錢	-11.136
행진	-11.136
▁따로	-11.1361
본국	-11.1361
米穀	-11.1361
운행	-11.1361
勞農	-11.1361
義務	-11.1362
선생의	-11.1362
此際	-11.1364
텽	-11.1365
있었는데	-11.1366
외로	-11.1368
▁金泳三	-11.1368
百五十	-11.1369
살해	-11.137
정책에	-11.137
▁획득	-11.1371
고있어	-11.1371
厚	-11.1372
발사	-11.1373
侵略	-11.1374
시스템	-11.1374
하지는	-11.1375
져야	-11.1375
딸아	-11.1375
게될	-11.1375
▁가졌다	-11.1376
병사	-11.1376
큐바	-11.1377
▁이름을	-11.1377
指	-11.1379
어음	-11.1379
公債	-11.1381
面積	-11.1386
1%	-11.1386
회의의	-11.1386
採	-11.1387
론이	-11.1387
증설	-11.1387
주어	-11.1387
일낮	-11.1388
段階	-11.1389
▁값	-11.139
것이라고한다	-11.1392
八五	-11.1392
출마	-11.1393
集團	-11.1394
選出	-11.1394
嚴重	-11.1394
日字	-11.1397
결성	-11.1398
실을	-11.1398
들리	-11.14
이잇섯다	-11.1403
實驗	-11.1403
▁경계	-11.1404
럼	-11.1404
▁것이었다	-11.1406
▁해소	-11.1407
식을거행	-11.1409
四一	-11.141
천연	-11.1411
當日	-11.1412
移出	-11.1413
수단으로	-11.1414
배척	-11.1414
부동	-11.1415
▁내지	-11.1416
統計	-11.1417
정무	-11.1417
也	-11.1417
시달	-11.1418
童	-11.1418
부대는	-11.142
가공	-11.142
▁아동	-11.1421
▁韓銀	-11.1421
▁계약	-11.1421
당시에	-11.1422
强調	-11.1426
週	-11.1426
고발	-11.1431
권리	-11.1432
동사	-11.1432
坤	-11.1432
▁것이라는	-11.1432
로말미암아	-11.1432
怪	-11.1432
答辯	-11.1433
昻騰	-11.1434
二十三	-11.1434
었다고	-11.1437
하동	-11.144
태도는	-11.144
逸	-11.1441
▁외무부	-11.1441
있을것이다	-11.1444
立法	-11.1444
일중	-11.1445
共產主義	-11.1445
▁美軍	-11.1447
필요한	-11.1448
반발	-11.145
중화	-11.145
학문	-11.1453
根本的	-11.1454
관심을	-11.1455
▁모색	-11.1455
▁련	-11.1457
▁청소년	-11.1459
▁작년에	-11.1459
云	-11.146
학교를	-11.146
社會的	-11.1461
일간의	-11.1461
請	-11.1462
術	-11.1466
리정	-11.1467
▁벽	-11.1468
遂行	-11.147
스러	-11.1471
보여	-11.1473
▁연주	-11.1473
(18	-11.1475
남어지	-11.1476
撤收	-11.1476
림시	-11.1477
▁무리	-11.1478
訴	-11.1478
여하한	-11.1479
최영	-11.1479
주민들	-11.1479
호텔에서	-11.1481
▁使用	-11.1481
권유	-11.1481
▁모습을	-11.1482
諸君	-11.1482
▁구입	-11.1482
▁s	-11.1483
폭동	-11.1484
일반의	-11.1484
느끼	-11.1484
이업다	-11.1485
토목	-11.1486
턴	-11.1486
결과는	-11.1486
作用	-11.1487
량은	-11.1487
되는것	-11.1489
질의	-11.1489
느껴	-11.1491
합하야	-11.1492
휴대	-11.1492
▁후장	-11.1493
버렷	-11.1493
▁전력	-11.1493
개입	-11.1493
▁받게	-11.1497
씨도	-11.1497
차관보	-11.1497
절대	-11.1498
될지	-11.1499
가격이	-11.15
하게될것이다	-11.1501
▁단속	-11.1502
▁諸	-11.1502
救	-11.1503
文明	-11.1503
▁작은	-11.1503
늦게	-11.1504
百圓	-11.1504
염려	-11.1505
요구를	-11.1506
▁의하야	-11.1507
▁불교	-11.1508
대상이	-11.1509
역을	-11.151
신문사	-11.1511
련락	-11.1511
베이	-11.1512
▁특정	-11.1513
冷	-11.1514
선수는	-11.1514
사설	-11.1516
에잇다	-11.1517
漁業	-11.1517
囘	-11.1518
▁各各	-11.1518
▁못할	-11.1519
招來	-11.1521
▁光州	-11.1521
爭	-11.1521
限度	-11.1523
▁實施	-11.1526
방법이	-11.1527
있을때	-11.1529
같	-11.1529
받을	-11.153
▁교통부	-11.1531
하고있다는	-11.1531
버마	-11.1531
才	-11.1534
▁팔일	-11.1534
회에서	-11.1534
晩	-11.1535
壁	-11.1535
까지에	-11.1535
마지	-11.1535
리석	-11.1535
▁법정	-11.1536
▁미곡	-11.1538
경찰서는	-11.1538
大槪	-11.1539
전임	-11.1539
위임	-11.1541
過去	-11.1542
아니나	-11.1544
▁시각	-11.1547
짓고	-11.1548
뵈	-11.1549
에대하여는	-11.155
이될	-11.1551
▁내일	-11.1551
알아	-11.1551
기자단	-11.1552
훈련을	-11.1552
지령	-11.1555
다고한다	-11.1555
▁지적하고	-11.1555
아연	-11.1559
▁관광	-11.1559
언급	-11.156
▁연설	-11.156
▁무시	-11.156
▁관해	-11.156
불능	-11.156
금고	-11.1562
沙	-11.1562
▁자극	-11.1562
西獨	-11.1564
隱	-11.1564
確保	-11.1565
쟁의	-11.1565
▁무엇인가	-11.1565
하리라는	-11.1565
공판은	-11.1567
경선	-11.1568
普通	-11.1569
▁비교	-11.157
▁당국의	-11.1572
▁인생	-11.1572
根本	-11.1574
▁찬성	-11.1576
운동은	-11.1576
錦	-11.1576
등이다	-11.1576
사후	-11.1577
되리라	-11.1578
▁이루어	-11.1579
▁안될	-11.158
▁보기	-11.158
보다더	-11.1581
▁기여	-11.1581
▁同時	-11.1582
▁규제	-11.1582
식의	-11.1583
江原道	-11.1586
▁뒷	-11.1588
▁이달	-11.1588
駐在	-11.1588
▁일방	-11.1588
학계	-11.1589
오다가	-11.1593
軍人	-11.1593
▁너무도	-11.1594
借款	-11.1594
조로	-11.1595
맞아	-11.1596
百餘	-11.1598
審	-11.1599
으면서	-11.1601
복을	-11.1603
▁소비자	-11.1603
▁주도	-11.1605
그림	-11.1607
▁것과	-11.1607
疑問	-11.1608
裕	-11.1608
諸般	-11.1608
批判	-11.1609
간판	-11.1613
三十分	-11.1613
설계	-11.1614
카이로	-11.1615
▁김일성	-11.1616
천하	-11.1616
▁文化	-11.162
방송국	-11.1621
조선총독부	-11.1623
▁잊	-11.1623
사자	-11.1624
유사	-11.1625
期日	-11.1626
둔다	-11.1626
▁도모	-11.1627
▁모양	-11.1628
불변	-11.1632
김영삼	-11.1632
부동산	-11.1634
▁추측	-11.1634
記念	-11.1634
▁심한	-11.1635
▁인근	-11.1635
▁시작된	-11.1637
위대한	-11.1638
麥	-11.1639
▁과제	-11.1639
정주	-11.164
全然	-11.1641
國民政府	-11.1641
터이다	-11.1641
▁대부분의	-11.1641
運命	-11.1643
가없다	-11.1644
현안	-11.1645
칠천	-11.1646
차랑	-11.1649
할터이라더라	-11.1649
.”	-11.1651
신민	-11.1652
▁주최	-11.1656
▁집을	-11.1658
이렇게	-11.166
▁심의	-11.1661
궤도	-11.1663
근래	-11.1664
▁지상	-11.1667
쿠데타	-11.1668
▁통상	-11.1668
오페라	-11.1668
波蘭	-11.1668
돌아가	-11.1669
▁前塲	-11.167
수익	-11.1673
세포	-11.1674
▁다음에	-11.1675
주문	-11.1675
비관	-11.1676
▁만족	-11.1676
數字	-11.1676
▁본래	-11.1677
▁定	-11.1682
몸을	-11.1682
정계	-11.1683
徵收	-11.1683
▁이나라	-11.1685
前後	-11.1688
운송	-11.1689
買氣	-11.1689
께임	-11.169
창원	-11.1695
경도	-11.1695
긋	-11.1698
皮	-11.1698
반대로	-11.1698
紛爭	-11.1698
공격을	-11.1701
전람회	-11.1702
케한	-11.1703
▁최소한	-11.1703
태도가	-11.1704
幸	-11.1706
▁경주	-11.1706
그들	-11.1706
구장	-11.1706
▁상징	-11.1707
航	-11.1709
양복	-11.1709
賣方	-11.1709
매각	-11.1712
五八	-11.1713
점포	-11.1716
스테	-11.1721
잇엇다	-11.1722
▁세우	-11.1722
약한	-11.1722
▁집에	-11.1723
사삼	-11.1723
인것을	-11.1723
돋	-11.1725
歷	-11.1727
發言	-11.1727
절충	-11.1727
뼈	-11.1728
荷	-11.1728
공보교	-11.1728
爆發	-11.1729
송치	-11.173
전제	-11.1733
무직	-11.1734
불리	-11.1734
기술자	-11.1736
▁수정	-11.1737
▁말았다	-11.1737
문화의	-11.1737
午後一時	-11.1737
국민정부	-11.1737
경질	-11.1738
즘	-11.174
주변	-11.174
만원의	-11.1741
▁달성	-11.1742
(3)	-11.1744
의뢰	-11.1745
南北	-11.1746
敦	-11.1747
오든	-11.1748
백년	-11.1749
불구하고	-11.175
박성	-11.175
되었다한다	-11.1751
▁일사	-11.1751
千萬	-11.1753
되던	-11.1754
찾아	-11.1755
공통	-11.1755
消息	-11.1757
公立普通學校	-11.1758
잎	-11.1758
공장을	-11.176
朝鮮米	-11.1763
근처	-11.1763
안양	-11.1763
오사	-11.1764
사관	-11.1764
경사	-11.1765
計上	-11.1765
사회를	-11.1766
맺	-11.1766
四三	-11.1766
개설	-11.1767
반공	-11.1767
▁연세대	-11.1768
줄로	-11.1769
량씨	-11.177
拂	-11.177
儀	-11.1771
展覽會	-11.1772
처분을	-11.1772
轉換	-11.1773
거리는	-11.1774
權力	-11.1775
▁방지	-11.1778
위원회에서	-11.1778
최후	-11.1779
거액	-11.1779
la	-11.1779
一齊	-11.1782
職業	-11.1782
위조	-11.1783
滅	-11.1784
十萬	-11.1784
세력을	-11.1786
개업	-11.1786
아츰	-11.1786
飛行機	-11.1787
총재가	-11.1788
警備	-11.1789
조세	-11.1789
령을	-11.1789
壓迫	-11.179
간담회	-11.179
하얏든	-11.1792
▁종래의	-11.1794
영미	-11.1794
??????	-11.1795
총장은	-11.1795
관계는	-11.1798
▁구조	-11.1798
해지고	-11.1799
▁겨울	-11.18
스토	-11.1803
檢擧	-11.1803
愼重	-11.1804
관객	-11.1805
防衛	-11.1805
塲所	-11.1806
에거주하는	-11.1807
몸이	-11.1808
좁	-11.1808
국면	-11.1808
創	-11.1809
▁억제	-11.1811
▁다루	-11.1813
▁연간	-11.1813
박영	-11.1814
同上	-11.1814
관할	-11.1816
활약	-11.1817
▁權	-11.1817
육팔	-11.1818
용품	-11.1819
警官	-11.1819
▁취조	-11.182
기보	-11.1821
▁이루어지	-11.1822
98	-11.1823
基地	-11.1823
군부	-11.1823
▁선발	-11.1823
자금의	-11.1824
▁그럴	-11.1825
▁돌파	-11.1825
축산	-11.1826
렸던	-11.1827
천억원	-11.1828
▁전세계	-11.1828
▁괴	-11.1829
清	-11.1832
▁사퇴	-11.1834
낭독	-11.1836
축소	-11.1836
▁주부	-11.1837
民政黨	-11.1838
분리	-11.1839
大部分	-11.1839
정수	-11.184
▁앞으로의	-11.1842
신도	-11.1843
진화	-11.1844
▁평남	-11.1844
小作	-11.1845
방화	-11.1847
고등보통학교	-11.1847
킹	-11.1848
입후보	-11.1848
曺	-11.185
▁대한민국	-11.1852
▁當地	-11.1855
자료를	-11.1855
종결	-11.1856
버렸다	-11.1857
▁영향	-11.186
微	-11.1861
외국인	-11.1862
煙	-11.1863
中學	-11.1865
영양	-11.1866
마시	-11.1866
順天	-11.1867
할때에는	-11.1867
▁注目	-11.1867
살인	-11.1868
기고	-11.1868
氏名	-11.187
권의	-11.1871
비치	-11.1873
소환	-11.1874
▁獨	-11.1874
명의로	-11.1874
博	-11.1875
迫	-11.1875
▁변호사	-11.1875
종업원	-11.1877
잇습니다	-11.1878
아카데미	-11.1878
民間	-11.1879
司令官	-11.188
하얏는바	-11.188
결론	-11.188
▁치안국	-11.1881
만달러	-11.1882
▁개설	-11.1882
▁기다리	-11.1883
관청	-11.1884
拒否	-11.1885
중이며	-11.1886
월일일부터	-11.1886
이백오십	-11.1888
부활	-11.1889
충실	-11.1889
십여명	-11.1889
▁일치	-11.1891
▁강한	-11.1893
성적을	-11.1893
峴	-11.1893
하여온	-11.1894
살이	-11.1895
컴퓨터	-11.1901
협정을	-11.1901
기다려	-11.1901
緊急	-11.1901
부정선거	-11.1903
▁유명한	-11.1903
씩을	-11.1903
▁거리	-11.1904
주권	-11.1904
內地	-11.1905
▁걸려	-11.1906
하지않으면	-11.1907
일백오십	-11.1909
收拾	-11.1909
거두	-11.191
▁우주	-11.191
옷을	-11.1915
군중	-11.1916
▁고대	-11.1918
수속	-11.1918
십오분	-11.192
삼랑	-11.192
입각	-11.1923
震	-11.1923
▁허위	-11.1924
知事	-11.1926
▁잠시	-11.1928
する	-11.193
일대의	-11.193
▁소유	-11.193
지명	-11.1931
바람이	-11.1931
滿足	-11.1931
하사	-11.1933
마비	-11.1936
시오	-11.1937
비공식	-11.1937
工藝	-11.1938
원서	-11.1939
컴	-11.194
▁제외한	-11.1941
▁영업	-11.1941
칠명	-11.1944
▁당내	-11.1944
되어서	-11.1945
총선	-11.1946
폭등	-11.1946
▁신의주	-11.1947
일어나	-11.1948
외에도	-11.195
▁强	-11.195
▁진주	-11.1951
日上午	-11.1951
確實	-11.1953
▁집안	-11.1953
部分	-11.1953
▁생각해	-11.1954
▁表現	-11.1956
개척	-11.1957
현황	-11.1958
同樣	-11.1961
▁파리	-11.1963
없을	-11.1964
▁폐지	-11.1964
▁뿌리	-11.1965
사무실	-11.1965
물산	-11.1965
크레	-11.1966
보내고	-11.1967
자취	-11.1967
박수	-11.1969
宇宙	-11.197
수있다	-11.197
露西亞	-11.197
후루시쵸프	-11.197
관동	-11.197
화장	-11.1971
편리	-11.1972
중으로	-11.1972
▁끈	-11.1972
午	-11.1972
신성	-11.1974
▁警察	-11.1975
고성	-11.1975
▁오른	-11.1976
최대	-11.1976
一種	-11.1978
섰다	-11.198
제이회	-11.198
▁있지	-11.1983
▁曺	-11.1983
▁아름다운	-11.1985
휴회	-11.1985
一大	-11.1985
세율	-11.1986
團結	-11.1986
丙	-11.1987
▁十五	-11.1987
수반	-11.1988
▁차량	-11.199
평의원	-11.199
잇던	-11.1991
연수	-11.1992
▁음식	-11.1994
程	-11.1995
체제를	-11.1996
▁상대	-11.1996
천도교	-11.1997
예년	-11.1997
한것과	-11.1997
育	-11.1999
내부	-11.1999
속의	-11.2
▁서명	-11.2
▁일정	-11.2001
원조를	-11.2002
厘	-11.2002
今般	-11.2003
▁떼	-11.2003
분개	-11.2003
양면	-11.2003
帝國	-11.2006
대학의	-11.2006
▁되풀이	-11.2006
▁c	-11.2007
총회에서	-11.2007
영사	-11.2009
중간	-11.2009
제지	-11.201
만인	-11.201
될때	-11.201
氣分	-11.2011
육명	-11.2011
▁파란	-11.2012
사실이다	-11.2012
가업는	-11.2016
약사	-11.2016
牧	-11.2016
으로하야금	-11.2016
▁상업	-11.2017
동대문	-11.2018
▁수준	-11.202
승격	-11.202
업무를	-11.2021
가잇섯	-11.2022
업소	-11.2022
박종	-11.2022
貨物	-11.2023
중에도	-11.2024
新任	-11.2026
이라는바	-11.2027
기회를	-11.2028
▁예비	-11.2028
가아니라	-11.2029
▁관련된	-11.203
지하	-11.203
▁대선	-11.203
하였음	-11.2031
강서	-11.2032
재미	-11.2033
▁상승	-11.2034
있다고한다	-11.2035
出身	-11.2035
▁대책을	-11.2036
점검	-11.2038
外換	-11.2039
친다	-11.2041
왕래	-11.2042
사절단	-11.2042
▁묘	-11.2042
거든	-11.2044
융	-11.2045
突破	-11.2047
西大門	-11.2047
超過	-11.2048
받고있는	-11.205
濟州	-11.2052
▁f	-11.2052
오후삼시	-11.2053
▁머리를	-11.2053
세트	-11.2054
▁점을	-11.2055
지니	-11.2056
근본적	-11.2058
▁사람들은	-11.2058
比較的	-11.2059
▁정도로	-11.206
다리고	-11.2061
시키는데	-11.2063
輿論	-11.2063
推薦	-11.2063
▁뒷받침	-11.2063
슛	-11.2063
싱가포르	-11.2063
射	-11.2063
삼척	-11.2064
오십원	-11.2066
마르	-11.2066
환자가	-11.2069
시킨다	-11.2071
호는	-11.2073
이전에	-11.2074
롭게	-11.2074
93	-11.2075
▁막을	-11.2075
施	-11.2076
오늘날	-11.2076
탄압	-11.2076
ob	-11.2077
보아야	-11.2077
목적을	-11.2078
매를	-11.2078
예산을	-11.2081
▁휘	-11.2082
演劇	-11.2083
관심	-11.2085
~1	-11.2085
백만달러	-11.2086
특선	-11.2086
毒	-11.2086
▁당장	-11.2087
伊太利	-11.2088
고저	-11.209
뿐더러	-11.209
경희대	-11.209
▁주변	-11.2091
▁파업	-11.2091
주저	-11.2092
揚	-11.2093
イ	-11.2094
드듸어	-11.2094
에비추어	-11.2094
쟈	-11.2094
午前	-11.2099
경감	-11.21
우편국	-11.2104
底	-11.2107
▁동정	-11.2108
船舶	-11.2108
작은	-11.2109
상태로	-11.2109
▁統一	-11.2109
신민당	-11.2111
▁대법원	-11.2111
박사의	-11.2112
탈당	-11.2115
安全	-11.2116
아지	-11.2118
品目	-11.212
▁불리	-11.2122
관계에	-11.2122
▁以上	-11.2123
은행의	-11.2124
▁소속	-11.2124
寶	-11.2125
리태	-11.2125
뇨	-11.2125
凖備	-11.2125
넉넉	-11.2125
强盜	-11.2125
히고	-11.2126
▁하나로	-11.2126
▁내한	-11.2127
일전	-11.2128
年末	-11.2129
룬	-11.213
추방	-11.2131
人員	-11.2131
▁부근	-11.2132
어찌	-11.2132
인선	-11.2132
액수	-11.2136
▁주제	-11.2136
예심	-11.2137
▁敎育	-11.2138
오구	-11.2139
閔	-11.214
잠실	-11.2145
날밤	-11.2146
거처	-11.2147
부패	-11.2147
불성	-11.2147
교섭을	-11.2148
하고그	-11.2149
모여	-11.215
最終	-11.2156
不良	-11.2158
以	-11.2159
열리	-11.2159
配當	-11.2161
명령을	-11.2164
음성	-11.2164
십륙일	-11.2166
住	-11.2168
좋	-11.2168
▁거기에	-11.2169
골프	-11.217
妻	-11.2171
煙草	-11.2172
삼십원	-11.2173
길은	-11.2174
려수	-11.2175
院內	-11.2176
위가	-11.2176
대목	-11.2176
한바있다	-11.2176
여론	-11.2177
연설을	-11.2178
▁발표하였다	-11.2181
100	-11.2181
가족들	-11.2181
▁운전	-11.2182
一百	-11.2185
승리를	-11.2185
啓	-11.2186
기용	-11.2186
하로	-11.2187
작정	-11.2187
도다	-11.2188
하천	-11.2189
▁배경	-11.2189
▁단순한	-11.219
▁이십육일	-11.2191
그가	-11.2192
억류	-11.2192
▁이번에는	-11.2193
케함	-11.2194
발견하고	-11.2195
능력을	-11.2195
물결	-11.2197
이십이	-11.2198
부와	-11.2199
▁경찰의	-11.2203
굿	-11.2204
안악	-11.2209
▁態度	-11.2209
▁검사	-11.2209
산출	-11.2209
중이든바	-11.221
욕을	-11.2212
방에서	-11.2214
▁대량	-11.2214
원화	-11.2217
麻	-11.2218
노라	-11.2219
▁돌아오	-11.2219
지위	-11.2221
▁남은	-11.2222
일저녁	-11.2225
하얏든바	-11.2225
不法	-11.2226
시기를	-11.2227
코리아	-11.2228
▁全南	-11.223
를위하여	-11.223
색이	-11.223
드려	-11.2232
▁이에대해	-11.2233
▁신규	-11.2234
돼있다	-11.2234
▁공사	-11.2234
다수한	-11.2235
追加	-11.2235
擔當	-11.2236
▁압수	-11.2239
구두	-11.224
진학	-11.2242
발각	-11.2242
시기에	-11.2243
뜰	-11.2244
박승	-11.2246
닭	-11.2247
사백	-11.2248
▁군인	-11.225
브라질	-11.2253
행방	-11.2253
婦	-11.2253
▁주장하고	-11.2253
조금	-11.2254
存	-11.2255
리유	-11.2256
남미	-11.2256
▁인권	-11.2256
을통하여	-11.2258
▁평북	-11.2258
▁말하자면	-11.2259
▁御	-11.2261
如斯	-11.2262
▁이곳에서	-11.2262
아무	-11.2262
기다리	-11.2262
할계획	-11.2263
보복	-11.2264
되리라더라	-11.2265
▁이태리	-11.2265
십명	-11.2266
損害	-11.2266
잇는것은	-11.2267
할듯	-11.2269
▁위기	-11.227
토이기	-11.227
영남	-11.2271
▁충분한	-11.2272
순위	-11.2272
▁구경	-11.2273
▁그저	-11.2273
▁92	-11.2274
六〇	-11.2274
▁국경	-11.2274
되니	-11.2275
綠	-11.2275
에참가	-11.2277
잡히	-11.2277
장내	-11.2278
kbs	-11.2278
金大中	-11.2282
하게되면	-11.2282
論議	-11.2283
대도시	-11.2283
樂觀	-11.2284
잉	-11.2285
거리를	-11.2285
지상	-11.2285
국민은	-11.2285
순간	-11.2288
▁통제	-11.229
女高	-11.229
추측	-11.229
비행장	-11.2292
上院	-11.2293
條項	-11.2294
中立	-11.2295
▁財政	-11.2296
浪	-11.2296
陷	-11.2297
場所	-11.2298
표정	-11.2298
副議長	-11.2299
日發同盟	-11.23
시장을	-11.23
▁전략	-11.23
된지	-11.2301
우스	-11.2301
▁오랫동안	-11.2302
근본	-11.2302
신상	-11.2304
유효	-11.2305
육성	-11.2307
▁사정	-11.2311
자기의	-11.2311
安州	-11.2311
나려	-11.2311
양화	-11.2311
▁第三	-11.2311
つて	-11.2311
▁先	-11.2312
▁중국의	-11.2314
興味	-11.2315
▁비추어	-11.2315
학생이	-11.2316
김명	-11.2317
▁기회	-11.2317
사년	-11.232
영구	-11.2322
▁좋	-11.2322
한후에	-11.2324
茂	-11.2324
주자	-11.2326
부호	-11.2326
〉.	-11.2326
자산	-11.2328
懲役	-11.233
▁확립	-11.2331
양을	-11.2331
달아	-11.2331
百四十	-11.2332
▁국민학교	-11.2333
敎員	-11.2333
포위	-11.2333
▁85	-11.2334
▁압	-11.2335
商店	-11.2335
할수있게	-11.2338
대표팀	-11.2338
▁아이	-11.2338
▁沈	-11.2338
당해	-11.2339
財務	-11.2341
만철	-11.2342
▁가질	-11.2345
▁만큼	-11.2346
천만원을	-11.2347
인것	-11.235
사람들의	-11.2352
입경	-11.2352
(8	-11.2353
▁지시했다	-11.2353
庫	-11.2354
효과를	-11.2354
▁절도	-11.2354
▁노력을	-11.2356
김봉	-11.2358
불허	-11.2358
▁묶	-11.2359
관에서	-11.236
협상을	-11.236
모처	-11.236
이건	-11.236
陳情	-11.2362
하반기	-11.2363
▁판결	-11.2365
보충	-11.2365
▁가능한	-11.2365
응급	-11.2366
입고	-11.2367
▁○...	-11.2368
以內	-11.2369
▁폭행	-11.2369
직전	-11.2369
▁보았다	-11.2371
주체	-11.2372
保有	-11.2373
當然	-11.2373
優	-11.2374
시간에	-11.2375
가르	-11.2375
方案	-11.2376
여하히	-11.2376
配定	-11.2376
武裝	-11.2377
彩	-11.2377
審判	-11.2378
성황	-11.2378
朴鍾	-11.2378
뛰어	-11.2379
形便	-11.2379
목격	-11.238
배상	-11.238
헐	-11.2381
관료	-11.2382
全般	-11.2382
▁얻은	-11.2382
▁회의	-11.2383
불신	-11.2383
조치는	-11.2383
▁예측	-11.2384
千六百	-11.2384
▁머물	-11.2386
▁수여	-11.2388
出版	-11.2389
一九三	-11.239
▁태평양	-11.239
돌연	-11.239
백만원을	-11.239
유망	-11.239
▁農村	-11.2391
제삼회	-11.2391
고원	-11.2392
裝	-11.2392
政䇿	-11.2392
▁살해	-11.2393
對外	-11.2394
採擇	-11.2394
생활에	-11.2395
列	-11.2395
變動	-11.24
總選擧	-11.2402
남원	-11.2403
일백	-11.2405
▁특징	-11.2406
기간을	-11.2407
途	-11.2407
▁끄	-11.2407
中限	-11.2408
▁하더라도	-11.2409
導	-11.2409
▁이와가티	-11.2409
대와	-11.2409
干涉	-11.241
勤務	-11.241
彫刻	-11.241
▁直接	-11.241
배부	-11.2411
만타	-11.2411
冬	-11.2411
中間	-11.2412
하지않는다	-11.2412
지못하는	-11.2413
▁責任	-11.2415
제외	-11.2415
생긴	-11.2416
경신	-11.2416
취됴	-11.2417
논쟁	-11.2417
▁성명	-11.2417
有利	-11.2418
로하야금	-11.2418
學者	-11.242
全朝鮮	-11.2422
눈물	-11.2422
진해	-11.2422
무성	-11.2423
五九	-11.2423
유학생	-11.2423
기반	-11.2424
년전부터	-11.2424
애국	-11.2425
보석	-11.2425
괘	-11.2425
완전	-11.2426
拂下	-11.2428
▁중지	-11.2431
기수	-11.2432
도구	-11.2432
스님	-11.2434
한바어니와	-11.2434
만평	-11.2436
通告	-11.2437
白米	-11.2437
▁눈물	-11.2437
▁수많은	-11.2438
단연	-11.2439
▁d	-11.2439
청사	-11.2441
발휘	-11.2441
매물	-11.2441
甘	-11.2441
모르	-11.2442
다음과같이	-11.2443
동창회	-11.2443
성실	-11.2445
당초	-11.2445
▁구체적	-11.2445
하지못하고	-11.2446
손해를	-11.2447
▁그다지	-11.2448
바둑	-11.2448
신청을	-11.2448
충분	-11.2449
암리	-11.245
의결과	-11.2451
與黨	-11.2451
▁김진	-11.2452
マ	-11.2455
은다음과같다	-11.2456
▁호주	-11.2457
땀	-11.2458
할것이라고한다	-11.2462
축구대회	-11.2462
천후	-11.2463
우회	-11.2465
철원	-11.2466
설정	-11.2466
조사결과	-11.2467
▁형식	-11.2468
校長	-11.2468
정권을	-11.2469
▁소련이	-11.2469
九十	-11.2471
액이	-11.2471
동반	-11.2472
▁안보	-11.2476
六六	-11.2478
팔육	-11.2479
候補	-11.2482
절실	-11.2482
遞信	-11.2482
손실	-11.2486
不變	-11.2488
94	-11.2488
군데	-11.2488
이출	-11.2489
일동안	-11.249
杓	-11.249
私立	-11.2492
、3	-11.2498
▁국민당	-11.2499
소식통	-11.2499
정조	-11.2499
▁合意	-11.25
수당	-11.2501
▁투입	-11.2501
圓臺	-11.2501
▁각도	-11.2502
버려	-11.2503
각기	-11.2503
▁나타내	-11.2504
貸	-11.2504
祐	-11.2505
事務官	-11.2505
梅	-11.2505
인격	-11.2505
육구	-11.2506
蓮	-11.2506
▁광고	-11.2507
가되어	-11.2507
영일	-11.2508
▁토론	-11.2508
선임	-11.2508
理解	-11.2508
裵	-11.2508
상상	-11.2508
라며	-11.251
도업시	-11.2513
사회적	-11.2513
총수	-11.2513
것보다	-11.2513
사임	-11.2513
맛나	-11.2514
所屬	-11.2514
期限	-11.2515
대학생	-11.2515
▁몇몇	-11.2516
보지	-11.2516
해결을	-11.2516
채무	-11.2518
▁방법	-11.2519
위선	-11.2519
렬차	-11.2521
원칙을	-11.2522
曰	-11.2522
犧牲	-11.2522
대국	-11.2523
하등	-11.2523
평생	-11.2523
設備	-11.2523
▁작일	-11.2525
▁밋	-11.2525
考	-11.2526
▁형편	-11.2528
외상은	-11.2528
金龍	-11.2528
방송은	-11.2532
▁이에대하야	-11.2533
소동	-11.2534
손님	-11.2534
▁조선일보	-11.2535
▁있은	-11.2535
▁노인	-11.2536
卓	-11.2538
収	-11.2539
오후이시	-11.2539
원내총무	-11.2539
음악회	-11.2543
낼수	-11.2546
견지	-11.2547
▁법원	-11.2547
에들어	-11.2549
回復	-11.2549
▁해명	-11.2549
▁美術	-11.2553
참모	-11.2554
럭	-11.2554
上程	-11.2555
雙方	-11.2555
差異	-11.2555
배경	-11.2556
·2	-11.2556
▁직원	-11.2557
리경	-11.2558
개월동안	-11.256
▁대외	-11.2561
▁憲法	-11.2561
보앗	-11.2562
廉	-11.2562
양국의	-11.2562
협박	-11.2562
해놓고	-11.2565
양정	-11.2565
방으로	-11.2566
취득	-11.2567
공표	-11.2568
을밧	-11.2568
급히	-11.2569
町步	-11.2569
친척	-11.2569
讀	-11.257
컵	-11.2571
發揮	-11.2571
타개	-11.2572
남기고	-11.2575
김은	-11.2575
□□□□	-11.2575
사십분	-11.2577
솔직	-11.258
증거	-11.258
기성회	-11.258
무렵	-11.2583
취한	-11.2583
한듯	-11.2586
피난	-11.2588
라는것은	-11.2588
불평	-11.2588
여좌	-11.259
▁뉴욕	-11.259
합창	-11.2592
民正	-11.2592
▁되어있다	-11.2593
七圓	-11.2594
▁원인	-11.2596
總長	-11.2598
설을	-11.2598
指摘	-11.2598
▁죽음	-11.26
총무는	-11.2601
잡혀	-11.2603
죤	-11.2603
윌	-11.2603
經驗	-11.2604
▁권총	-11.2604
▁덧붙였다	-11.2604
목재	-11.2604
할경우	-11.2605
경호	-11.2605
▁거절	-11.2605
▁대북	-11.2605
▁일선	-11.2606
▁익	-11.2607
▁선두	-11.2608
左右	-11.2608
▁나누어	-11.2609
어려	-11.2609
집행위원	-11.2612
구명	-11.2613
깔	-11.2613
빈민	-11.2613
である	-11.2614
=「	-11.2614
料金	-11.2614
아라	-11.2615
出動	-11.2616
일수	-11.2618
경제의	-11.2619
곳으로	-11.2619
해운	-11.262
민족의	-11.262
번호	-11.262
釋放	-11.262
歐	-11.2621
신당	-11.2621
수석대표	-11.2621
▁논란	-11.2622
▁강력히	-11.2623
이십구	-11.2625
前日	-11.2626
▁또다른	-11.2626
▁달하는	-11.2626
원과	-11.2627
지안는	-11.2628
전례	-11.263
洲	-11.263
席上	-11.2631
하등의	-11.2631
商人	-11.2634
적발	-11.2635
▁정부와	-11.2637
▁後塲	-11.2637
팔명	-11.2638
▁판명	-11.2639
水害	-11.264
三十一	-11.2642
결핵	-11.2642
투기	-11.2643
격렬	-11.2644
▁벼	-11.2644
하지않았다	-11.2644
대치	-11.2644
든가	-11.2645
▁촉진	-11.2645
불만	-11.2645
공해	-11.2647
불입	-11.2648
판결을	-11.2648
re	-11.2648
▁풀어	-11.2648
▁자민련	-11.2648
삼호	-11.2648
大使舘	-11.2649
‖1	-11.265
정치의	-11.265
▁한국에	-11.2651
실적	-11.2651
미만	-11.2652
詳細	-11.2653
優秀	-11.2654
結論	-11.2656
중진	-11.2656
金炳	-11.2657
02	-11.2658
▁향상	-11.2658
비등	-11.2662
西部	-11.2663
旅	-11.2663
裁判	-11.2664
이든바	-11.2664
효과가	-11.2664
▁유명	-11.2666
일월	-11.2666
의논	-11.2667
천환	-11.267
했을때	-11.267
소아	-11.2671
서울특별시	-11.2672
最初	-11.2672
선고	-11.2673
▁있읍니다	-11.2673
플레이	-11.2673
사십오	-11.2675
문단	-11.2676
삼분	-11.2676
▁주력	-11.2677
간이	-11.2677
감상	-11.2678
▁한나라당	-11.2679
▁農	-11.268
사이공	-11.2681
구정	-11.2683
연탄	-11.2684
법개정	-11.2684
奏	-11.2686
搜査	-11.2686
奭	-11.2686
▁자녀	-11.2686
配給	-11.2686
사랑의	-11.2687
▁육일	-11.2688
歲入	-11.2689
▁最高	-11.2689
慶州	-11.2689
에서부터	-11.2689
하여간	-11.2691
밝혔다	-11.2692
▁내부	-11.2692
오삼	-11.2693
리화	-11.2694
▁필경	-11.2694
해양	-11.2695
高校	-11.2696
▁特選	-11.2696
타격을	-11.2697
일신	-11.2698
▁청산	-11.2698
▁수색	-11.27
그들이	-11.27
▁親	-11.2701
▁개입	-11.2701
▁제거	-11.2702
가나	-11.2702
妨害	-11.2702
마닐라	-11.2703
화성돈	-11.2703
▁의혹	-11.2704
선생님	-11.2704
관은	-11.2704
企劃	-11.2706
▁요구하는	-11.2706
체조	-11.2707
권투	-11.2708
▁각지	-11.271
이러	-11.271
▁共同	-11.2711
▁입을	-11.2713
▁나아가	-11.2714
분에	-11.2714
▁不過	-11.2714
▁유월	-11.2715
四名	-11.2716
수영	-11.2716
요강	-11.2718
▁벌어진	-11.2718
銅	-11.2719
惹起	-11.2719
하겟다고	-11.2719
約束	-11.272
어디	-11.272
리영	-11.272
午後三時	-11.2721
公布	-11.2722
세무서	-11.2722
남동	-11.2723
결함	-11.2723
幅	-11.2723
進步	-11.2725
집어	-11.2725
燈	-11.2727
▁띄	-11.2727
當面	-11.2727
동아일보	-11.2728
전봇	-11.2729
군당국	-11.273
性質	-11.2731
산본	-11.2732
▁소문	-11.2732
사무를	-11.2733
구청	-11.2733
공산주의	-11.2735
주심	-11.2735
처서	-11.2735
東大門	-11.2736
엉	-11.2736
정복	-11.2736
▁우려가	-11.2736
▁방안을	-11.2738
후퇴	-11.2739
▁없지	-11.2739
文藝	-11.2739
당부	-11.2739
불상	-11.274
수배	-11.2742
한가운데	-11.2742
▁고급	-11.2743
음으로	-11.2745
劇場	-11.2746
증액	-11.2748
訓	-11.275
구축	-11.275
최초의	-11.275
근거	-11.2751
문제등	-11.2751
後任	-11.2752
면화	-11.2752
▁운동	-11.2753
▁感	-11.2753
유명한	-11.2755
▁띠	-11.2756
여기	-11.2757
▁계산	-11.2757
▁成	-11.2757
▁관세	-11.2757
만여	-11.2759
▁사과	-11.2759
북면	-11.276
小作人	-11.276
탁구	-11.276
▁지명	-11.2762
▁동지	-11.2762
▁軍事	-11.2763
二千	-11.2764
▁옳	-11.2764
▁會談	-11.2766
쉽	-11.2766
아니오	-11.2767
▁실무	-11.2767
▁果然	-11.2768
쓰러	-11.2768
彥	-11.2769
き	-11.2769
▁서방측	-11.2769
렷	-11.277
증강	-11.2771
▁경우에는	-11.2771
정확	-11.2773
罷業	-11.2774
경리	-11.2774
하지않은	-11.2774
엇슴으로	-11.2774
麗	-11.2778
彼	-11.278
전체의	-11.278
▁한계	-11.2781
▁없게	-11.2781
목적으로	-11.2784
이라크	-11.2785
猛烈	-11.2786
不正	-11.2786
▁미국과	-11.2786
▁날로	-11.2788
될것은	-11.2788
중이라고	-11.2789
를개최	-11.2789
달성	-11.2789
포스트	-11.2791
▁이와함께	-11.2791
▁빗	-11.2792
로인한	-11.2792
부장관	-11.2792
대답	-11.2793
을갖고	-11.2794
▁이스라엘	-11.2796
주를	-11.2796
▁부당	-11.2797
바른	-11.2799
九〇	-11.2799
진상	-11.2799
但	-11.28
芳	-11.2801
불가능	-11.2801
독립운동	-11.2802
자녀	-11.2804
관민	-11.2805
▁감시	-11.2805
자라	-11.2805
보좌관	-11.2806
눈을	-11.2808
대북	-11.2808
반락	-11.2809
치마	-11.2809
▁올랐다	-11.2809
불과	-11.281
▁머	-11.2811
하얏다한다	-11.2812
형성	-11.2819
▁명년	-11.2819
황금	-11.282
업슴으로	-11.2821
▁대일	-11.2821
적으로는	-11.2822
反落	-11.2823
일이라	-11.2824
몰라	-11.2824
▁거두	-11.2825
급전	-11.2825
▁민정	-11.2826
해병대	-11.2829
때문	-11.2829
동척	-11.283
이십륙일	-11.2831
▁대단히	-11.2831
▁당분간	-11.2832
江原	-11.2832
保證	-11.2833
계통	-11.2833
同校	-11.2834
명확	-11.2835
籠球	-11.2836
到達	-11.2836
천칠백	-11.2837
처치	-11.2839
장인	-11.2839
支那	-11.2839
▁規定	-11.2841
▁완료	-11.2844
協議會	-11.2844
졋	-11.2844
▁▼|	-11.2845
아닐	-11.2845
할수잇	-11.2845
百六十	-11.2845
▁되엇다	-11.2846
▁경우가	-11.2848
기동	-11.2848
일발동맹	-11.2849
▁불편	-11.2849
呼	-11.2851
잇으나	-11.2852
實踐	-11.2852
一面	-11.2855
냥	-11.2855
팔칠	-11.2856
▁金大中	-11.2856
니아	-11.2857
▁아는	-11.2861
惡化	-11.2862
기관의	-11.2863
괴뢰	-11.2865
換率	-11.2866
▁싸움	-11.2866
풍속	-11.2866
衛	-11.2867
▁k	-11.2868
갓흔	-11.2868
공사가	-11.2868
김원	-11.2868
연예	-11.2869
포인트	-11.2869
렵	-11.2871
부당	-11.2873
는물론	-11.2874
三萬	-11.2876
이번에	-11.2876
삼십육	-11.2877
재등	-11.2878
전년	-11.2879
▁지구	-11.288
날인	-11.288
黃海道	-11.2882
식민지	-11.2884
최저	-11.2885
▁중공의	-11.2886
混亂	-11.2886
판정	-11.2887
▁일본에	-11.2889
▁일반은	-11.2889
영장	-11.289
만톤	-11.289
세계의	-11.289
박상	-11.289
에응	-11.289
▁공공	-11.2891
▁希望	-11.2892
이아니고	-11.2893
▁밟	-11.2894
▁결론	-11.2894
▁이유는	-11.2895
▁정계	-11.2896
불황	-11.2901
일으켜	-11.2903
住宅	-11.2903
우세	-11.2905
청도	-11.2906
▁바꾸	-11.2906
소련의	-11.2906
밝	-11.2906
백사십	-11.2907
마치고	-11.2907
오산	-11.2908
手續	-11.2909
▁외환	-11.2912
六圓	-11.2912
六百	-11.2913
원인이	-11.2913
발발	-11.2914
하는자	-11.2914
▁내용의	-11.2914
우방	-11.2914
하얏다고	-11.2914
▁없애	-11.2914
담화	-11.2917
注	-11.2917
▁드러	-11.2917
▁民間	-11.2917
음력	-11.2918
주민들은	-11.292
시키려는	-11.292
▁최근의	-11.292
웨이	-11.2921
▁리상	-11.2921
있었으며	-11.2922
어져	-11.2923
구분	-11.2924
가업다	-11.2924
형식으로	-11.2925
출두	-11.2926
幹	-11.2926
공범	-11.2929
所得	-11.293
▁넘는	-11.2931
모혀	-11.2932
五名	-11.2932
▁작품이	-11.2934
부실	-11.2935
과가튼	-11.2935
▁매각	-11.2936
▁그냥	-11.2936
畢竟	-11.2936
土耳其	-11.2936
昊	-11.2936
밴	-11.2936
다섯	-11.2937
요르단	-11.2937
할예정이다	-11.2937
물로	-11.2937
됐으며	-11.2938
指名	-11.2938
하여가지고	-11.2938
책정	-11.2938
한글	-11.2939
곳을	-11.2939
중상을	-11.294
궁금	-11.294
읽	-11.2941
▁충실	-11.2942
비로소	-11.2942
▁손님	-11.2942
から	-11.2943
반환	-11.2943
본월	-11.2943
八八	-11.2945
▁生產	-11.2946
▁내정	-11.2946
세종	-11.2946
외환	-11.2949
신전	-11.295
▁쓰고	-11.295
릭	-11.295
▁유치	-11.2952
바닥	-11.2952
誤	-11.2952
오인은	-11.2953
걸음	-11.2953
없으니	-11.2953
金鍾泌	-11.2953
소식통들은	-11.2954
學年	-11.2955
할때는	-11.2957
제는	-11.296
병원에서	-11.2961
判事	-11.2961
▁상태	-11.2961
망라	-11.2963
착륙	-11.2963
▁승진	-11.2967
各方面	-11.2968
館	-11.2969
西方	-11.297
愚	-11.297
鴻	-11.297
쿄	-11.297
午前十一時	-11.2971
호주	-11.2973
▁개편	-11.2974
절차를	-11.2975
계획에	-11.2976
▁분리	-11.2981
일개월	-11.2982
▁記者	-11.2985
父	-11.2988
김준	-11.2988
보내는	-11.2991
▁리종	-11.2992
김제	-11.2992
월말현재	-11.2993
장식	-11.2994
▁몹시	-11.2994
▁보고있다	-11.2995
▁선고	-11.2995
▁역사적	-11.2996
민주화	-11.2996
현행	-11.2998
직무	-11.3
▁돌려	-11.3002
을개시	-11.3002
本年	-11.3003
사람으로	-11.3004
觀念	-11.3005
接近	-11.3005
경찰은	-11.3006
夫人	-11.3006
풍토	-11.3009
▁관계자는	-11.3011
사실상	-11.3011
五四	-11.3012
▁가서	-11.3012
권이	-11.3014
▁映畵	-11.3016
선물	-11.3016
체결	-11.3018
중국의	-11.3018
김종비	-11.3019
재무부	-11.3019
뛰	-11.3021
體制	-11.3021
昨今	-11.3022
동경전화동맹	-11.3022
아홉	-11.3022
행렬	-11.3022
경찰서에서	-11.3022
▁맥	-11.3024
반응	-11.3025
고려대	-11.3025
使命	-11.3026
백이십	-11.3026
‖「	-11.3026
▁아내	-11.3028
관이	-11.3029
대표위원	-11.303
리순	-11.303
만환을	-11.3031
과실	-11.3031
暴	-11.3032
업스며	-11.3033
에다가	-11.3036
뽈	-11.3038
華盛頓	-11.3038
뎍으로	-11.3039
잡이	-11.3041
이엇	-11.3041
일당	-11.3041
마지막	-11.3043
음식	-11.3043
▁단기	-11.3044
엇더케	-11.3045
입장을	-11.3045
요즘	-11.3047
마루	-11.3047
▁전원	-11.3048
증명	-11.3048
▁내달	-11.305
▁장차	-11.3051
제도가	-11.3052
방향을	-11.3053
▁우수	-11.3053
沒	-11.3054
바더	-11.3054
여원	-11.3054
撤廢	-11.3055
東京電話同盟	-11.3056
突然	-11.3056
일천오백	-11.3057
로버트	-11.3058
▁주인공	-11.3058
철도국	-11.3059
군사령부	-11.306
各道	-11.3061
가설	-11.3062
잔치	-11.3062
제군	-11.3063
난관	-11.3064
타격	-11.3067
조곰	-11.3067
별세	-11.3067
▁내놓	-11.3068
말한다	-11.3068
夢	-11.3068
이엿	-11.3069
에의해서	-11.307
▁잇섯	-11.307
수비	-11.307
뻔	-11.3073
전파	-11.3073
까닭으로	-11.3074
建物	-11.3075
사살	-11.3076
들인	-11.3076
▁대립	-11.3079
상반기	-11.3081
세미나	-11.3081
결렬	-11.3081
공관	-11.3083
답사	-11.3084
▁실험	-11.3084
될듯	-11.3084
견해	-11.3085
겟다	-11.3085
誠意	-11.3087
하리라는데	-11.3089
網	-11.3089
▁新聞	-11.309
百八十	-11.3091
특허	-11.3093
▁비슷한	-11.3093
에이르	-11.3094
자동	-11.3094
▁三二	-11.3095
많아	-11.3095
학교에서	-11.3096
公州	-11.3097
斤	-11.3098
박한	-11.3098
하든지	-11.3098
양자	-11.31
문교부	-11.31
전투기	-11.3103
규정을	-11.3103
해오던	-11.3103
▁쌓	-11.3103
김문	-11.3105
つ	-11.3105
粟	-11.3106
사채	-11.3107
檢察	-11.3107
입후보자	-11.3107
▁둔	-11.311
진압	-11.3111
기다	-11.3112
라주	-11.3112
효력	-11.3113
▁옷	-11.3114
갓치	-11.3115
기자회견	-11.3116
추첨	-11.3117
每年	-11.3117
▁염려	-11.3118
취재	-11.3118
에있다	-11.3118
오백원	-11.3121
씨름	-11.3121
본회의	-11.3122
국군	-11.3122
견제	-11.3123
지침	-11.3123
조선인의	-11.3125
피고는	-11.3128
것임으로	-11.3128
주선	-11.3128
소방	-11.313
지말고	-11.313
六九	-11.3131
일소	-11.3131
용사	-11.3132
누가	-11.3133
▁비롯하야	-11.3133
사명을	-11.3134
▁하로	-11.3135
육삼	-11.3138
처장	-11.3138
반동	-11.3138
기때문	-11.314
ᄇ	-11.3141
燁	-11.3142
順序	-11.3142
학술	-11.3142
▁폭로	-11.3143
▁결성	-11.3144
한다하며	-11.3144
에비해	-11.3145
▁발달	-11.3148
나오	-11.3149
도피	-11.3151
不遠	-11.3152
往	-11.3153
아는	-11.3153
이업서	-11.3153
▁근로자	-11.3155
▁농림부	-11.3156
물건	-11.3158
勞動	-11.3159
대통령을	-11.316
업을	-11.316
金海	-11.3161
昨	-11.3162
▁어떠케	-11.3164
,3	-11.3165
▁해주	-11.3166
과잉	-11.3166
조선내	-11.3167
國債	-11.3168
당은	-11.3168
의원을	-11.3168
▁充分	-11.3168
▁판정	-11.317
▁공판	-11.3171
▁mbc	-11.3171
其後	-11.3171
▁그밖에	-11.3173
▁최후	-11.3174
▁선진국	-11.3175
購入	-11.3176
imf	-11.3176
復活	-11.3176
大勢	-11.3177
辭任	-11.3177
기탁	-11.3177
좌우	-11.318
색을	-11.3181
▁몸을	-11.3181
서민	-11.3182
치열	-11.3182
싸고	-11.3183
전신	-11.3183
고용	-11.3184
▁추궁	-11.3185
영어	-11.3185
렀	-11.3186
▁月	-11.3186
장녀	-11.3188
東亞日報	-11.3189
電報	-11.3189
원인을	-11.3191
진료	-11.3192
前提	-11.3196
▁고용	-11.3198
▁첫날	-11.3199
독창	-11.3201
南方	-11.3202
진상을	-11.3203
괴한	-11.3203
한것인데	-11.3203
▁끌고	-11.3205
▁자리에서	-11.3205
▁맡아	-11.3206
가능성	-11.3207
양당	-11.3209
소문	-11.321
단체의	-11.321
受諾	-11.3211
藏相	-11.3213
대지	-11.3215
용이	-11.3216
▁벌였다	-11.3216
▁본회의	-11.3217
物品	-11.3218
▁車	-11.3218
을계속	-11.3219
정권의	-11.3219
▁朱	-11.322
경전	-11.322
주년을	-11.322
▁목표	-11.3222
▁연다	-11.3223
▁명령	-11.3224
▁흘러	-11.3225
되고잇다	-11.3226
▁짜	-11.3226
疑	-11.3227
▁화제	-11.3228
教	-11.3228
륭	-11.3228
▁출판	-11.3228
금강산	-11.323
權威	-11.3231
피아	-11.3231
▁무력	-11.3232
性格	-11.3232
▁黑	-11.3234
농성	-11.3236
공화	-11.3236
盛况	-11.3237
좀더	-11.3238
적십자사	-11.3238
라마	-11.3239
▁소련은	-11.324
일홈	-11.3242
▁발사	-11.3243
不平	-11.3245
○│	-11.3246
停止	-11.3246
여개	-11.3246
나온다	-11.3247
요새	-11.325
침입하야	-11.325
되든	-11.325
▁기소	-11.3251
▁붓	-11.3251
없으며	-11.3252
강당	-11.3252
생사	-11.3252
四年	-11.3253
되엇슴으로	-11.3255
▁공군	-11.3255
돌파	-11.3257
치안는	-11.3258
하여야할	-11.3258
오후팔시	-11.3259
가량의	-11.326
리봉	-11.326
불편	-11.326
▁들었다	-11.3262
豪	-11.3262
선두	-11.3263
犯罪	-11.3264
第二次	-11.3264
같다	-11.3268
자각	-11.3268
하나니	-11.3269
種類	-11.3269
앵	-11.3269
후보가	-11.327
▁짐작	-11.3272
再次	-11.3272
▁영어	-11.3273
십오원	-11.3274
▁五月	-11.3277
야말로	-11.3277
殿	-11.3278
불득기	-11.3279
스페인	-11.3281
合併	-11.3281
중등학교	-11.3281
할머니	-11.3284
特電	-11.3285
리승	-11.3286
을중심으로	-11.3289
記事	-11.3289
반란	-11.329
저장	-11.3291
▁歐洲	-11.3291
▁未	-11.3292
인들	-11.3292
▁남한	-11.3293
▁경찰이	-11.3293
▁엇지	-11.3294
파가	-11.3294
八圓	-11.3294
경력	-11.3295
밖으로	-11.3295
운하	-11.3296
爆	-11.3296
正當	-11.3297
밑에서	-11.3298
▁한창	-11.3298
保留	-11.3299
▁딴	-11.3299
外務	-11.33
년이상	-11.33
본즉	-11.3303
九二	-11.3304
可能	-11.3305
자들	-11.3307
지속	-11.3307
오후일시	-11.3309
이라는것은	-11.331
그날	-11.3311
▁그렇	-11.3314
版	-11.3314
不得己	-11.3315
세제	-11.3317
매년	-11.3317
회담은	-11.3319
▁한결	-11.3319
▁작품은	-11.3321
哲學	-11.3321
▁갈등	-11.3324
보았다	-11.3324
하드라도	-11.3324
事變	-11.3325
現地	-11.3325
중역	-11.3326
지검	-11.3326
경우에	-11.3326
▁他	-11.3327
도못	-11.3327
▁慶北	-11.3327
말했다	-11.3327
▁우수한	-11.3328
基金	-11.3329
을마치고	-11.333
석상에서	-11.3331
분위기	-11.3332
希	-11.3333
▁횡설수설	-11.3333
▁절대로	-11.3334
하는바에	-11.3336
해준	-11.3336
▁인민	-11.3337
▁결심	-11.3337
意圖	-11.3337
방책	-11.334
현직	-11.334
고밝혔다	-11.334
정책이	-11.3341
▁내세우	-11.3341
대장성	-11.3344
동시	-11.3344
싹	-11.3344
틴	-11.3345
廻	-11.3345
국에	-11.3345
▁如何	-11.3346
卽	-11.3347
▁일종의	-11.3349
▁삼월	-11.3349
▁삼사	-11.335
여섯	-11.335
粉	-11.335
닉	-11.335
기권	-11.3351
오면	-11.3354
▁하나는	-11.3354
▁세금	-11.3355
▁내렸다	-11.3355
公立	-11.3357
▁비료	-11.3359
資源	-11.3359
무엇을	-11.336
계는	-11.3362
졌던	-11.3362
전에는	-11.3362
▁절반	-11.3363
▁진정한	-11.3364
▁청구	-11.3364
화해	-11.3365
根據	-11.3365
간부들	-11.3366
하겠	-11.3367
砂	-11.3368
酸	-11.3368
어든	-11.3368
까지에는	-11.3369
▁울산	-11.3369
옆	-11.3369
운임	-11.3369
▁기준	-11.3369
삭제	-11.3369
칼로	-11.337
▁나왔다	-11.3372
국책	-11.3372
▁축소	-11.3373
교과서	-11.3375
승인을	-11.3375
▁意見	-11.3375
밀어	-11.3376
질서를	-11.3378
▁가리	-11.3378
▁가로	-11.3378
망이	-11.3379
조업	-11.338
ins	-11.338
▁나를	-11.338
번영	-11.3381
炯	-11.3381
령목	-11.3382
동네	-11.3383
호흡	-11.3383
▁남북한	-11.3383
▁대하여는	-11.3384
單一	-11.3385
翰	-11.3385
브리	-11.3385
경찰서장	-11.3386
▁주소	-11.3386
샘	-11.3386
結婚	-11.3386
▁있어서의	-11.3386
경쟁력	-11.3387
將校	-11.3387
라하야	-11.3387
▁정식으로	-11.3389
칠육	-11.3392
▁구월	-11.3392
▁여행	-11.3394
▁결정했다	-11.3395
안될것이다	-11.3396
용지	-11.3396
▁몰아	-11.3397
▁앞으로도	-11.3398
말하고	-11.3398
▁긴	-11.3398
아니라	-11.3398
준공	-11.3399
▁平	-11.3401
熟	-11.3401
이십분	-11.3401
▁일년	-11.3402
慾	-11.3403
▁陸軍	-11.3404
加藤	-11.3404
반부터	-11.3404
▁무장	-11.3405
삼개	-11.3406
취인소	-11.3407
지않으면	-11.3407
▁指摘	-11.3409
▁비행기	-11.3412
전역	-11.3413
칠년	-11.3415
엇든	-11.3416
어깨	-11.3416
▁바람	-11.3416
녁	-11.3417
▁동부	-11.3418
▁공예	-11.3418
▁이사건	-11.3419
상관	-11.342
▁연속	-11.342
荒	-11.342
방공	-11.342
▁않을수	-11.3421
긔를	-11.3421
▁둘러싼	-11.3422
▁충북	-11.3422
천주교	-11.3423
재벌	-11.3424
▁끌	-11.3424
경영하는	-11.3424
代表者	-11.3425
灣	-11.3425
레닌	-11.3425
權限	-11.3426
진보	-11.3427
償還	-11.3427
액의	-11.3427
집이	-11.3427
金光	-11.3428
▁실행	-11.3428
것으로보인다	-11.3428
新規	-11.3429
세력의	-11.3431
등급	-11.3432
▁색채	-11.3433
부임	-11.3433
시아	-11.3434
五三	-11.3434
▁최저	-11.3434
상하	-11.3435
가락	-11.3437
형을	-11.3438
en	-11.3438
▁金東	-11.3439
濠洲	-11.3439
財源	-11.344
픔	-11.3441
英米	-11.3442
정우	-11.3444
시에는	-11.3446
뎐보	-11.3446
오전구시	-11.3446
▁여러분	-11.3447
▁자진	-11.3448
▁격려	-11.3449
▁움직임	-11.345
의원들의	-11.345
대회가	-11.345
고속도로	-11.3451
띄	-11.3452
말하엿다	-11.3452
구간	-11.3452
시위를	-11.3453
핫	-11.3453
두사람	-11.3454
▁고문	-11.3454
유통	-11.3454
랴고	-11.3455
世上	-11.3457
덥	-11.3457
댐	-11.3457
▁둘러싸고	-11.3457
마라톤	-11.3458
域	-11.3458
▁칠월	-11.3459
인계	-11.346
것같	-11.3462
事實上	-11.3463
가능성이	-11.3463
▁지금도	-11.3464
▁조치	-11.3465
양주	-11.3465
수령	-11.3467
법과	-11.3469
조선일보	-11.347
▁대기업	-11.3473
潮	-11.3473
들어가서	-11.3475
▁생각하고	-11.3476
삼만	-11.3476
분은	-11.3477
되어온	-11.3479
국민회의	-11.3479
딸하	-11.348
演出	-11.348
公式	-11.3481
▁몇가지	-11.3481
作曲	-11.3483
▁도달	-11.3483
▁一日	-11.3483
해금	-11.3485
▁여섯	-11.3487
몽고	-11.3488
今回	-11.3488
▁이때문에	-11.3488
주거	-11.3488
▁관심이	-11.3489
確認	-11.3491
능률	-11.3492
카메라	-11.3493
회동	-11.3493
卒業	-11.3494
막아	-11.3494
보였다	-11.3495
양도	-11.3496
조직된	-11.3497
▁대두	-11.3497
전권	-11.3499
▁총리	-11.35
인것으로	-11.3501
반면에	-11.3502
▁올들어	-11.3503
▁살고	-11.3503
滿洲國	-11.3504
융통	-11.3504
보낼	-11.3504
교량	-11.3505
규약	-11.3505
四分	-11.3506
標	-11.3507
한지라	-11.3507
출자	-11.3508
▁의료	-11.351
▁임기	-11.351
墨	-11.351
二回	-11.3511
부담을	-11.3511
이십육	-11.3512
知識	-11.3512
팀이	-11.3513
▁끝으로	-11.3514
▁섬	-11.3516
▁역할	-11.3516
심정	-11.3516
▁提出	-11.3518
is	-11.3518
든것이	-11.3519
週間	-11.3519
논문	-11.352
소란	-11.3521
가급적	-11.3522
뒤로	-11.3522
八七	-11.3525
攻	-11.3525
권한	-11.3525
下落	-11.3526
개정안	-11.3528
卷	-11.3528
경남도	-11.3529
라한다	-11.3529
소유자	-11.353
하야가지고	-11.3531
▁기독교	-11.3532
정밀	-11.3532
無事	-11.3533
선관위	-11.3535
에도불구하고	-11.3538
개관	-11.3539
이라는것을	-11.3539
백만불	-11.354
두목	-11.354
만든	-11.3541
一九五	-11.3541
▁없으며	-11.3542
絲	-11.3544
말하면	-11.3545
딴	-11.3545
作業	-11.3546
降	-11.3546
距離	-11.3546
休會	-11.3546
保險	-11.3546
기삿	-11.3547
▁학원	-11.3547
로동조합	-11.3548
▁인용	-11.3548
▁그뒤	-11.3549
▁일본내지	-11.3549
放出	-11.3549
▁수송	-11.3551
리비아	-11.3551
군에게	-11.3551
▁교원	-11.3551
入札	-11.3552
▁증인	-11.3553
▁우리나라에서	-11.3555
徒	-11.3555
▁부득이	-11.3555
합격	-11.3557
表現	-11.3558
아르	-11.3559
영불	-11.3559
▁최대한	-11.356
오락	-11.3561
을이루	-11.3561
방면에서	-11.3562
▁86	-11.3562
건립	-11.3562
김덕	-11.3563
공천	-11.3564
拒絕	-11.3564
캄보디아	-11.3564
갚	-11.3564
午後四時	-11.3565
방콕	-11.3565
文書	-11.3568
▁전망이다	-11.3569
▁강요	-11.3569
▁보급	-11.357
위축	-11.357
▁영등포	-11.3572
▁쓰는	-11.3573
明白	-11.3574
평등	-11.3574
▁국회에서	-11.3574
▁조선사람	-11.3574
▁이리하야	-11.3576
재산을	-11.3577
양보	-11.3581
왔는데	-11.3582
質疑	-11.3583
균형	-11.3583
觀察	-11.3583
淸算	-11.3583
六千	-11.3584
부설	-11.3584
상과	-11.3585
六八	-11.3585
사대	-11.3585
表面	-11.3585
마찰	-11.3585
회원국	-11.3587
▁죄	-11.3587
단행	-11.3589
서울운동장	-11.3589
판을	-11.359
지않을	-11.359
시키기로	-11.3593
▁늘어나	-11.3593
럽	-11.3593
▁이론	-11.3595
되어잇다	-11.3597
▁알리	-11.3597
고있던	-11.3598
감옥	-11.3599
▁시찰	-11.36
▁화재	-11.36
예기	-11.36
로켓트	-11.36
소지	-11.3601
印象	-11.3601
을받아	-11.3602
空氣	-11.3603
백육십	-11.3603
▁도움이	-11.3603
證明	-11.3603
▁대통령선거	-11.3604
지못할	-11.3606
디자인	-11.3607
講演會	-11.3607
검사를	-11.3608
▁적극적으로	-11.3608
없으나	-11.3609
來韓	-11.3609
보세	-11.3611
외무부	-11.3612
▁認定	-11.3613
▁횡령	-11.3613
北方	-11.3614
동양화	-11.3616
정보를	-11.3616
▁기계	-11.3616
▁경우는	-11.3616
종식	-11.3617
제방	-11.3618
다는데	-11.3618
▁감상	-11.3618
丹	-11.3618
협동	-11.3618
피해자	-11.3618
▁알려진바에의하면	-11.3619
▁일본측	-11.3619
몸에	-11.3621
▁철저한	-11.3621
▁極東	-11.3622
삼십팔	-11.3622
일발	-11.3622
직시	-11.3623
▁아니면	-11.3624
추수	-11.3626
千三百	-11.3627
▁서양	-11.3628
언덕	-11.3629
을요구	-11.3629
물건을	-11.3629
시설이	-11.3631
▁협박	-11.3633
05	-11.3634
包	-11.3634
▁戰爭	-11.3635
지회	-11.3635
▁냉	-11.3636
웬	-11.3637
▁발생한	-11.3638
연주회	-11.3638
지역을	-11.364
르는	-11.364
▁서구	-11.364
차관은	-11.3641
▁점령	-11.3642
▁伊太利	-11.3643
▁적극적인	-11.3645
庭	-11.3646
安城	-11.3647
폭로	-11.3647
▁明	-11.3648
영수	-11.3648
것으로서	-11.3651
▁正式	-11.3653
있지	-11.3653
▁작자	-11.3654
塔	-11.3654
관계상	-11.3654
▁부분	-11.3655
지고있다	-11.3655
警告	-11.3655
강탈	-11.3656
金明	-11.3656
서양화	-11.366
하야써	-11.366
비준	-11.366
▁있는가	-11.366
방을	-11.3663
▁촉구했다	-11.3664
투쟁을	-11.3664
▁인간의	-11.3665
▁지도자	-11.3667
謀	-11.3668
歷史的	-11.3668
권고	-11.3669
육년	-11.367
차단	-11.3671
인플레	-11.3672
▁民正黨	-11.3672
김형	-11.3673
롤	-11.3673
스에즈	-11.3674
길로	-11.3674
회장이	-11.3675
山面	-11.3675
▁제일회	-11.3676
강습회	-11.3676
▁외부	-11.3677
전사	-11.3678
出品	-11.3679
점이다	-11.368
함도	-11.368
▁기능	-11.3681
차지	-11.3681
湖南	-11.3682
▁十三	-11.3684
오후오시	-11.3684
스리	-11.3685
를내	-11.3685
▁고전	-11.3686
연말	-11.3686
현저	-11.3686
청소	-11.3688
곱	-11.3689
항공기	-11.369
▁무엇이	-11.369
▁농가	-11.3691
大豆	-11.3691
琴	-11.3691
과반	-11.3692
붙여	-11.3694
체코	-11.3694
영등포구	-11.3694
혼자	-11.3695
진단	-11.3696
▁이들이	-11.3696
평택	-11.3696
▁캐	-11.3697
많고	-11.37
▁지주	-11.3702
▁올려	-11.3702
세우고	-11.3703
臣	-11.3703
황제	-11.3704
피로	-11.3704
▁잇서서	-11.3705
일주일	-11.3705
▁치르	-11.3706
자세	-11.3708
▁생각이	-11.3708
겠	-11.3709
悲	-11.3709
禍	-11.3709
비률빈	-11.3709
나라의	-11.371
시톄	-11.371
移動	-11.3711
필요성	-11.3711
▁덜	-11.3712
李昌	-11.3712
수호	-11.3713
단계에	-11.3714
이탈	-11.3716
법안을	-11.3717
▁增加	-11.3718
오고	-11.3718
청량리	-11.3718
하지못한	-11.3719
정부를	-11.3719
안심	-11.3719
▁고교	-11.372
▁要請	-11.3721
배포	-11.3721
夕	-11.3722
短期	-11.3722
인권	-11.3722
테러	-11.3722
적극	-11.3723
지국장	-11.3723
등귀	-11.3723
▁불국	-11.3724
치며	-11.3725
를두고	-11.3726
▁있어서도	-11.3726
▁計	-11.3728
戦	-11.3728
▁위선	-11.3728
▁셈이다	-11.3728
기여	-11.3728
指定	-11.3728
오후두시	-11.3729
覺書	-11.3729
~2	-11.3729
본일	-11.373
승을	-11.3731
少女	-11.3733
였으며	-11.3733
원활	-11.3733
두절	-11.3733
대기	-11.3735
(10	-11.3735
▁發展	-11.3737
점점	-11.3737
학사	-11.3737
것은아니다	-11.3737
▁타협	-11.3739
▁豫想	-11.3739
▁거주하는	-11.374
석탄	-11.3742
穀	-11.3742
날을	-11.3743
보관	-11.3744
중견	-11.3744
뿐으로	-11.3745
含	-11.3746
示唆	-11.3746
▁더우기	-11.3746
구내	-11.3748
▁십오	-11.3749
항을	-11.3749
탄광	-11.3751
명이나	-11.3751
▁피해를	-11.3753
심사위원	-11.3754
達成	-11.3754
第七	-11.3754
强制	-11.3755
어린이들	-11.3755
농민의	-11.3756
雙	-11.3757
관계자들은	-11.3759
병으로	-11.3759
▁팔월	-11.376
背	-11.376
억불	-11.3761
너머	-11.3762
렬국	-11.3764
밀수	-11.3765
國會議員	-11.3765
列國	-11.3766
▁慶南	-11.3766
東拓	-11.3766
▁제조	-11.3766
성면	-11.3767
야간	-11.3769
▁승용차	-11.3769
七千	-11.3769
▁共產	-11.3771
천오백	-11.3772
장마	-11.3774
대강	-11.3775
세는	-11.3775
퇴직	-11.3778
▁해산	-11.3779
으로나	-11.378
충분히	-11.3781
파악	-11.3781
探	-11.3782
百餘名	-11.3782
는동시에	-11.3784
미수	-11.3785
게되엿다	-11.3785
軍備	-11.3787
비교적	-11.3788
▁千	-11.3788
기성	-11.379
인솔	-11.379
절명	-11.379
도있다	-11.3791
따위	-11.3791
▁쌍방	-11.3791
섭씨	-11.3791
▁들어갔다	-11.3793
▁떨어져	-11.3794
▁낸	-11.3796
금전	-11.3797
▁진화	-11.3797
百三十	-11.3798
▁目下	-11.3798
於	-11.3798
▁대부분이	-11.3799
幾	-11.3799
한다는바	-11.3801
無理	-11.3801
移入	-11.3801
乾	-11.3801
同日	-11.3802
▁정치인	-11.3802
以前	-11.3804
명성	-11.3805
▁중국인	-11.3806
마감	-11.3806
오로	-11.3807
八六	-11.3808
▁찬	-11.3808
분국	-11.3809
▁▶	-11.381
핑	-11.3811
상식	-11.3811
주일간	-11.3812
경기대회	-11.3812
▁참고	-11.3812
該當	-11.3812
랏	-11.3813
▁지낸	-11.3813
▁열릴	-11.3815
▁만난	-11.3815
보로	-11.3815
▁의견이	-11.3818
될수있는	-11.3818
▁일본이	-11.3819
장상	-11.3819
신앙	-11.3819
濃厚	-11.382
곁	-11.382
採用	-11.3821
통을	-11.3821
▁임원	-11.3824
▁진열	-11.3826
되어잇는	-11.3826
▁내주	-11.3827
した	-11.3828
김두	-11.3828
수상이	-11.383
시민의	-11.383
하여왔다	-11.3831
여부는	-11.3831
박용	-11.3831
국무장관	-11.3832
商議	-11.3833
시다	-11.3834
▁심각	-11.3834
▁졸	-11.3835
전전	-11.3836
복귀	-11.3837
토디	-11.3837
▁방침을	-11.3837
環境	-11.3838
기중	-11.3838
▁民族	-11.384
연행	-11.384
▁동대문	-11.3842
가까이	-11.3843
중재	-11.3843
세우	-11.3844
▁그들을	-11.3844
신천	-11.3845
항목	-11.3846
▁그야말로	-11.3849
데다가	-11.3851
상공회의소	-11.3851
▁박대통령	-11.3853
間島	-11.3855
凡	-11.3855
▁일본은	-11.3856
歐羅巴	-11.3857
베트콩	-11.3857
결속	-11.3857
주년기념	-11.3857
▁체육	-11.3858
성수	-11.3858
도리혀	-11.3858
시체	-11.3859
리드	-11.3859
▁실제로	-11.386
에따르는	-11.3861
▁말하면서	-11.3864
▁최대의	-11.3866
트라	-11.3866
▁左	-11.3867
▁詩	-11.3867
벗	-11.3868
조사단	-11.3868
正義	-11.387
내로	-11.3872
▁말할	-11.3872
억원으로	-11.3873
편을	-11.3873
귀임	-11.3874
할방침	-11.3874
▁삼육	-11.3874
增大	-11.3874
豐	-11.3875
へ	-11.3875
詩人	-11.3875
群衆	-11.3875
遲延	-11.3875
推測	-11.3875
世紀	-11.3876
中部	-11.3876
▁합니다	-11.3876
의료	-11.3878
전형	-11.3879
二人	-11.3881
二十圓	-11.3882
▁수십	-11.3883
東獨	-11.3884
▁강남	-11.3884
반면	-11.3885
잇슴을	-11.3886
하기전에	-11.3888
もの	-11.3889
낙관	-11.389
자미	-11.3892
마츰	-11.3894
칠칠	-11.3894
深刻	-11.3894
舞臺	-11.3894
▁떨어진	-11.3895
▁있습니다	-11.3895
▁설정	-11.3896
▁일련의	-11.3897
부수	-11.3898
카라	-11.3898
▁받고있다	-11.39
淸州	-11.3901
보선	-11.3902
하엿다는바	-11.3903
사진을	-11.3907
는것과	-11.3907
말라	-11.3907
여야	-11.3908
장차	-11.3908
숙명	-11.391
이라면서	-11.3911
상차	-11.3911
▁고객	-11.3911
標準	-11.3913
▁삶	-11.3913
▁완전한	-11.3916
攻勢	-11.3918
▁物價	-11.3918
락을	-11.392
잇는것	-11.3921
관장	-11.3922
소득세	-11.3922
백칠십	-11.3922
???????	-11.3923
한사실이	-11.3923
강우	-11.3924
▁원조	-11.3927
정통	-11.3927
특사	-11.3928
▁여론	-11.3929
맥주	-11.393
서에서는	-11.3931
獨裁	-11.3932
작일	-11.3932
추세	-11.3933
▁방한	-11.3933
의손에	-11.3934
말이다	-11.3935
희랍	-11.3935
成果	-11.3937
▁자동	-11.3938
달라는	-11.3938
민의원	-11.3938
해졌다	-11.3939
조직을	-11.3939
咸北	-11.394
일백이십	-11.3941
하지안흐면	-11.3941
턱	-11.3941
據	-11.3943
▁보상	-11.3944
▁多	-11.3945
찬양	-11.3945
시청	-11.3945
氷	-11.3947
북괴	-11.3947
왼	-11.3949
鳥	-11.395
▁신용	-11.395
청취	-11.3953
▁더이상	-11.3955
해주고	-11.3955
▁국세청	-11.3956
쇄신	-11.3958
용의	-11.3958
이러케	-11.3958
▁발족	-11.3958
當限	-11.396
관게로	-11.396
▁농성	-11.3961
▁東洋畵	-11.3961
함정	-11.3962
수용소	-11.3962
하고있는것이다	-11.3963
▁미래	-11.3963
월간	-11.3964
성황을	-11.3964
담을	-11.3966
하와이	-11.3967
大將	-11.3968
랫	-11.3968
千萬圓	-11.3969
준결승	-11.397
公判	-11.397
▁볼때	-11.3971
외국어	-11.3972
있거니와	-11.3972
하엿스니	-11.3974
▁있다면	-11.3974
▁對日	-11.3974
▁요사이	-11.3976
끝난	-11.3976
있었	-11.3977
지오	-11.3977
정책은	-11.3978
해줄	-11.3978
▁확실	-11.3981
▁반응	-11.3981
이명	-11.3981
買入	-11.3981
아우	-11.3981
법관	-11.3981
늣기	-11.3982
確	-11.3982
겻	-11.3983
수속을	-11.3983
팔리	-11.3984
콩고	-11.3985
▁과거의	-11.3985
收穫	-11.3985
에따라서	-11.3986
진입	-11.3986
▁목적으로	-11.3987
영역	-11.3987
実	-11.3987
東萊	-11.3988
▁연말	-11.3989
철퇴	-11.3989
▁원내	-11.399
제안을	-11.3992
원고	-11.3994
세탁	-11.3996
려면	-11.3997
민영	-11.3997
蔣	-11.3997
앉아	-11.3997
소실	-11.3998
후장	-11.3999
이있는	-11.4
어대	-11.4
셈이다	-11.4003
금춘	-11.4004
제거	-11.4005
모르고	-11.4005
干	-11.4006
믿	-11.4007
기자회견에서	-11.4007
력과	-11.4008
증서	-11.4009
명씩	-11.4009
부천	-11.4009
03	-11.4011
照	-11.4012
再建	-11.4013
미화	-11.4016
공매	-11.4017
반영	-11.4018
중립	-11.4018
법개정안	-11.4019
金榮	-11.4019
지못하야	-11.402
▁고려대	-11.4021
▁축하	-11.4022
▁밀려	-11.4022
하엿섯	-11.4023
갓다가	-11.4023
담임	-11.4024
절망	-11.4024
외교관	-11.4025
澈	-11.4025
▁신뢰	-11.4025
보건대	-11.4026
공전	-11.4028
▁불만	-11.403
살펴	-11.4031
이업	-11.4036
관영	-11.4036
▁북한이	-11.4037
피해가	-11.4038
盡	-11.4039
결과가	-11.404
발급	-11.404
놓았다	-11.4041
계열	-11.4042
줌	-11.4042
五二	-11.4042
수차	-11.4043
불화	-11.4044
開拓	-11.4044
성취	-11.4044
過程	-11.4044
殖銀	-11.4045
國際的	-11.4045
▁두번째	-11.4046
김인	-11.4047
만원으로	-11.4047
▁나누	-11.4047
았으나	-11.4048
발기	-11.4049
▁三八	-11.4049
터이니	-11.4049
그래서	-11.4049
▁구체적으로	-11.4049
▁착공	-11.405
法院	-11.405
▁밧	-11.4051
評價	-11.4051
건국	-11.4052
▁마을	-11.4052
집안	-11.4052
▁발견하고	-11.4053
이어니와	-11.4053
▁휴전	-11.4053
金成	-11.4053
正午	-11.4053
중에서도	-11.4053
▁본격적인	-11.4054
具體的	-11.4054
中東	-11.4055
웠	-11.4056
으려	-11.4057
승진	-11.4058
을비롯하여	-11.4058
성대	-11.4058
황해	-11.406
구미	-11.406
▁여러가지로	-11.4061
느낌	-11.4062
累	-11.4062
▁법적	-11.4063
▁일정한	-11.4063
▁이야기를	-11.4066
漢口	-11.4066
충동	-11.4066
▁▽	-11.4067
齊	-11.4069
짓는	-11.4069
울리	-11.407
학생의	-11.4071
반복	-11.4071
치사	-11.4072
로이드	-11.4072
상장	-11.4073
눈에	-11.4073
관서	-11.4073
】『	-11.4074
▁삼팔	-11.4074
온천	-11.4076
주머니	-11.4078
경제협력	-11.4079
관리들은	-11.408
骨	-11.408
▁마침	-11.408
▁왔다	-11.4083
阪	-11.4084
▁決定	-11.4084
관하	-11.4086
치하	-11.4086
▁강연	-11.4087
閣	-11.4089
▁一二	-11.409
▁三七	-11.4092
▁결과를	-11.4092
건을	-11.4093
으로부터의	-11.4093
로스	-11.4096
승용차	-11.4097
支社	-11.4097
자금으로	-11.4097
당국과	-11.4098
켓	-11.4099
逐	-11.4099
은행은	-11.4101
千八百	-11.4101
남쪽	-11.4105
▁남성	-11.4105
함북	-11.4105
▁삼칠	-11.4105
협회는	-11.4106
조치가	-11.4107
마시고	-11.411
대세	-11.411
▁방향	-11.4111
▁방해	-11.4111
傳達	-11.4111
어렵	-11.4111
겠는가	-11.4113
잇다한다	-11.4113
▁지나치게	-11.4114
▁中東	-11.4115
료를	-11.4117
▁參加	-11.4117
▁한국과	-11.4117
▁수락	-11.4118
意外	-11.4118
빵	-11.412
需給	-11.412
정체	-11.412
찔러	-11.4121
人類	-11.4121
▁양보	-11.4122
자전거	-11.4123
예고	-11.4123
잘알	-11.4125
百二十	-11.4127
국무성	-11.4128
革新	-11.4128
▁태국	-11.4131
선수들	-11.4132
위원은	-11.4132
우드	-11.4132
▁심판	-11.4133
▁조화	-11.4136
歸還	-11.4139
하기시작	-11.414
節次	-11.4142
,1	-11.4143
▁학생들이	-11.4143
그레	-11.4143
기정	-11.4145
고아	-11.4146
매출	-11.4147
滿鐵	-11.4147
한바와같이	-11.4149
영국의	-11.4151
자리에서	-11.4151
책이	-11.4151
렷다	-11.4154
있으면	-11.4155
때가	-11.4155
됐다는	-11.4156
시켜야	-11.4157
중소기업	-11.4157
紐育	-11.4158
될수잇는대로	-11.4158
시리즈	-11.4158
裴	-11.4158
發電	-11.4158
十分	-11.4159
▁위조	-11.4159
▁장식	-11.416
시비	-11.416
웁	-11.416
▁작업	-11.4162
▁사형	-11.4162
▁정원	-11.4163
▁흉	-11.4163
▁古	-11.4165
▁소요	-11.4165
▁十五日	-11.4166
編成	-11.4166
임무	-11.4166
국악	-11.4167
주주	-11.4168
百七十	-11.4168
던져	-11.4168
와가튼	-11.4168
이앙	-11.4168
▁관하여	-11.4169
▁창설	-11.4169
反面	-11.4171
대구시	-11.4172
반듯이	-11.4173
백팔십	-11.4173
보리	-11.4173
학기	-11.4174
公正	-11.4175
호남	-11.4176
유아	-11.4177
▁金日成	-11.4178
▁不拘	-11.4181
▁당신	-11.4181
차제	-11.4182
맞는	-11.4184
주고있다	-11.4185
죄를	-11.4187
아서	-11.4187
삼십이	-11.4188
世界的	-11.4189
리모	-11.4189
▁맞는	-11.419
引受	-11.4191
▁자기가	-11.4193
민원	-11.4194
舞	-11.4195
妙	-11.4195
하얏스니	-11.4196
恢復	-11.4196
스탈린	-11.4196
▁스며	-11.4198
增進	-11.4198
査	-11.4198
험악	-11.4198
▁多少	-11.4199
양국간의	-11.4199
中國人	-11.4201
한국시간	-11.4201
절취	-11.4204
의원들	-11.4204
▁공중	-11.4205
午前九時	-11.4206
수업는	-11.4207
빚어	-11.4207
무료	-11.4207
경기장	-11.4208
교외	-11.4208
연상	-11.4209
그렇게	-11.421
이기때문에	-11.421
사업으로	-11.4212
이되야	-11.4212
반항	-11.4213
▁금반	-11.4213
▁제일부	-11.4214
提起	-11.4215
추대	-11.4216
십오명	-11.4217
▁三六	-11.4217
取引所	-11.4217
우유	-11.4218
意向	-11.4218
▁將來	-11.4218
▁끝난	-11.4218
가잇섯다	-11.4218
강진	-11.4218
金元	-11.4219
가든	-11.422
▁싶	-11.422
내용이	-11.422
▁남부	-11.422
것인바	-11.4222
聲明書	-11.4225
援	-11.4225
협회장	-11.4225
제창	-11.4226
▁만드는	-11.4228
드라	-11.4229
자택서	-11.4231
파문	-11.4232
이념	-11.4234
뎌	-11.4234
게릴라	-11.4234
두명	-11.4237
장에게	-11.4237
삼십칠	-11.4238
공평	-11.4239
▁理由	-11.4239
교정	-11.4239
▁우리들의	-11.4242
한명이	-11.4242
心理	-11.4242
그러케	-11.4243
▁갖는	-11.4243
화란	-11.4243
입선	-11.4244
▁鮮展	-11.4244
▁당한	-11.4245
꼬리	-11.4245
公報	-11.4246
▁노조	-11.4246
민심	-11.4247
▁환자	-11.4248
▁초과	-11.4248
十五圓	-11.4248
▁보낸	-11.4248
항로	-11.4249
뉴육	-11.4251
지도모른다	-11.4251
봉쇄	-11.4252
다방	-11.4253
식혀	-11.4254
적당한	-11.4254
七年	-11.4256
업서서	-11.4257
信用	-11.4259
▁합동	-11.426
행사를	-11.4261
計算	-11.4261
박재	-11.4263
연속	-11.4264
주동	-11.4264
무엇이	-11.4265
집행위원회	-11.4266
요령	-11.4266
한말	-11.4267
유행	-11.4268
▁드러나	-11.4268
▁의존	-11.4268
됐고	-11.4269
병역	-11.4269
백정	-11.427
▁쓸	-11.4271
여러분	-11.4271
대표를	-11.4271
う	-11.4273
뿔	-11.4273
만장일치	-11.4273
젹	-11.4273
▁국군	-11.4274
밝히	-11.4274
▁화면	-11.4274
대응	-11.4275
자들에게	-11.4275
均衡	-11.4276
▁감추	-11.4277
팔분	-11.4278
장시간	-11.4278
분실	-11.4279
용으로	-11.4279
▁그와같은	-11.4279
체를	-11.4279
▁불행	-11.428
국장은	-11.428
▁벌여	-11.428
▁신축	-11.4282
에서는지난	-11.4282
오후칠시	-11.4283
개항	-11.4284
▁소지	-11.4284
추궁	-11.4285
대학에서	-11.4285
즈음	-11.4286
少將	-11.4287
제육	-11.4287
十八錢	-11.429
戰略	-11.4291
代表團	-11.4291
八年	-11.4292
합이빈	-11.4293
활성화	-11.4294
▁적이	-11.4294
朝鮮美術展覽會	-11.4295
천명의	-11.4295
기배	-11.4296
朝鮮總督府	-11.4297
있다는것을	-11.4297
九一	-11.4297
▁확신	-11.4298
▁곽	-11.4298
▁일층	-11.43
강습소	-11.43
聯邦	-11.43
어로	-11.43
해태	-11.43
마크	-11.4301
▁해도	-11.4302
불온	-11.4303
돈이	-11.4304
李承	-11.4305
寫	-11.4306
▁아이들	-11.4306
동구	-11.4307
八千	-11.4307
결뎡	-11.4307
대비	-11.431
千餘	-11.431
▁農民	-11.4311
▁상기	-11.4312
켈	-11.4312
十錢低	-11.4312
조상	-11.4312
월십오일	-11.4313
김수	-11.4314
네명	-11.4314
압송	-11.4315
참고	-11.4315
일까	-11.4316
뿐이	-11.4317
▁대결	-11.4317
▁討議	-11.4317
닛가	-11.4317
키위해	-11.4318
금산	-11.4318
▁끝나	-11.4318
만들	-11.4319
중의원	-11.432
相對	-11.4321
▁의뢰	-11.4321
方今	-11.4323
黨員	-11.4323
계가	-11.4324
▁말한	-11.4324
해나가	-11.4325
도둑	-11.4326
공부를	-11.4327
取消	-11.4327
당사자	-11.4329
徹	-11.4331
낭비	-11.4331
▁작용	-11.4331
跡	-11.4331
普及	-11.4332
▁확산	-11.4335
조명	-11.4336
배출	-11.4336
▁오십	-11.4337
정읍	-11.4339
삼십오	-11.4339
성행	-11.434
行政府	-11.434
취하야	-11.434
(17	-11.4342
시합	-11.4342
였고	-11.4342
분부터	-11.4343
동작	-11.4343
강령	-11.4344
계몽	-11.4344
동력	-11.4345
빈곤	-11.4346
휴가	-11.4347
후원회	-11.4347
자긔집	-11.4347
爲先	-11.4349
팅	-11.435
鏞	-11.435
▁말이다	-11.435
創設	-11.4351
의정부	-11.4351
고대	-11.4352
집결	-11.4352
겼	-11.4353
정순	-11.4353
電力	-11.4353
되지않는	-11.4354
도저히	-11.4355
本月	-11.4355
성명을	-11.4356
사람들에게	-11.4357
▁나올	-11.436
어려운	-11.436
통신이	-11.4361
戰時	-11.4361
▁입법	-11.4361
토벌	-11.4362
▁버스	-11.4365
▁경제기획원	-11.4365
▁예상된다	-11.4366
박정희	-11.4368
가마니	-11.4369
서울시장	-11.4369
▁一三	-11.437
支援	-11.437
紛糾	-11.437
척의	-11.4371
佛敎	-11.4372
나갈	-11.4372
▁주문	-11.4372
권리를	-11.4373
有名	-11.4376
의원들이	-11.4376
▁후원	-11.4376
지자	-11.4377
정도가	-11.4378
庭球	-11.438
대처	-11.438
艦隊	-11.438
수단을	-11.4381
하는것이라고	-11.4382
▁생긴	-11.4382
겐	-11.4383
비례	-11.4384
해달라	-11.4385
▁흙	-11.4386
▁丁	-11.4387
六一	-11.4388
정기총회	-11.4388
끝내	-11.4389
供	-11.4389
▁삼삼	-11.4389
症	-11.439
압록강	-11.439
▁성립	-11.439
氣勢	-11.439
중공업	-11.4391
▁흥	-11.4391
지법	-11.4391
▁교섭	-11.4392
패를	-11.4392
裡里	-11.4392
▁근본	-11.4394
対	-11.4394
격파	-11.4399
구체화	-11.4399
一定	-11.4399
▁목표로	-11.44
籍	-11.4401
▁애국	-11.4401
떠들	-11.4402
엇스나	-11.4402
요컨대	-11.4403
産業	-11.4404
방관	-11.4404
일제	-11.4404
市中	-11.4406
필요하다	-11.4407
수있도록	-11.4407
)2	-11.4408
議題	-11.4409
전염병	-11.441
구팔	-11.441
原子力	-11.441
▁매매	-11.441
家屋	-11.4411
▁높다	-11.4412
법상	-11.4412
▁내용은	-11.4412
▁신흥	-11.4413
千四百	-11.4414
비싼	-11.4414
굳	-11.4414
의집에서	-11.4414
통첩	-11.4415
열한시	-11.4416
▁中心	-11.4416
국민교	-11.4419
검사의	-11.4421
팽	-11.4422
하얏슴	-11.4423
請求	-11.4423
구석	-11.4424
김희	-11.4424
치안이	-11.4424
제씨	-11.4424
▁수밖에	-11.4425
업스니	-11.4426
事故	-11.4426
말슴	-11.4426
젤	-11.4427
특집	-11.4428
z	-11.4429
박람회	-11.443
▁현재까지	-11.4432
아무리	-11.4432
보며	-11.4432
▁걸친	-11.4434
▁시가	-11.4434
흔들	-11.4434
一回	-11.4435
에겐	-11.4435
루보	-11.4436
네루	-11.4436
크로	-11.4436
▁강력	-11.4437
金泳三	-11.444
▁통신	-11.444
매물이	-11.4441
▁l	-11.4444
鑛業	-11.4444
七百	-11.4445
생활이	-11.4445
責	-11.4445
포리	-11.4445
괄	-11.4446
침묵	-11.4447
▁kal	-11.4447
趣旨	-11.4448
길러	-11.445
邑內	-11.4451
▁들어온	-11.4451
왜곡	-11.4453
세가량	-11.4453
공의	-11.4454
업종	-11.4455
여관	-11.4457
셩	-11.4457
▁佛國	-11.4458
누리	-11.4459
탈퇴	-11.4459
선장	-11.446
프로그램	-11.446
▁言明	-11.446
노리	-11.4462
칠구	-11.4464
新民	-11.4464
利子	-11.4464
싯가	-11.4465
중국측	-11.4466
그릇	-11.4466
수락	-11.4466
미달	-11.4467
▁세계의	-11.4468
▁과정에서	-11.4468
▁십이월	-11.4469
깡패	-11.4469
淸津	-11.447
기각	-11.447
른다	-11.447
▁모순	-11.447
判明	-11.447
▁불평	-11.4471
면사무소	-11.4471
에너지	-11.4472
▁何等	-11.4473
하였을	-11.4473
각군	-11.4473
▁滿洲	-11.4475
基準	-11.4475
금액은	-11.448
츰	-11.4481
▁수리	-11.4481
홍원	-11.4481
상속	-11.4482
▁학생들의	-11.4482
안될	-11.4482
기관이	-11.4483
▁가득	-11.4484
策定	-11.4484
▁신라	-11.4486
상영	-11.4487
급행	-11.4488
객관	-11.4488
장남	-11.4488
停	-11.4488
잠수함	-11.4489
발전에	-11.4489
▁특별한	-11.449
」·「	-11.4491
부족으로	-11.4491
자세한	-11.4491
를거듭	-11.4492
중인바	-11.4492
방황	-11.4493
싸이	-11.4495
▁가령	-11.4495
모리	-11.4496
十一錢	-11.4497
인다	-11.4498
인조	-11.4498
▁서울에	-11.4498
▁방화	-11.4499
수십	-11.4501
우러	-11.4502
,2	-11.4503
▁불가피	-11.4503
▁국무회의	-11.4504
교동	-11.4504
놓아	-11.4505
織	-11.4505
하기로되엿다	-11.4506
美軍	-11.4506
륵	-11.4506
メ	-11.4508
므	-11.4508
출판사	-11.4508
전일	-11.4509
비아	-11.4509
▁김병	-11.451
▁수습	-11.451
놓여	-11.4512
거창	-11.4513
수입을	-11.4513
빈번	-11.4513
一割	-11.4516
▁具體的	-11.4516
것이라는데	-11.4517
자유화	-11.4517
고소를	-11.4517
변명	-11.4518
청년회관	-11.4518
공학	-11.4518
에와서는	-11.4521
▁논평	-11.4522
▁간부	-11.4522
▁남아있	-11.4522
▁요망	-11.4523
본년	-11.4524
다름	-11.4526
▁국회에	-11.4526
씨집에	-11.4527
れ	-11.4527
하겟다는	-11.4527
印刷	-11.4527
江陵	-11.4529
연승	-11.4529
김선	-11.453
야기	-11.453
청문회	-11.453
▁열렸다	-11.4531
▁四月	-11.4532
성안	-11.4532
기운	-11.4533
공중	-11.4533
▁손에	-11.4533
어더	-11.4536
▁마무리	-11.4536
목소리	-11.4536
▁一四	-11.4537
▁이것도	-11.4538
▁버	-11.4538
▁작년도	-11.4538
▁구형	-11.4538
결합	-11.4539
잃은	-11.454
激增	-11.4541
絶	-11.4541
현장에	-11.4541
으로말하면	-11.4541
▁수요	-11.4541
▁정부측	-11.4543
모금	-11.4544
▁정비	-11.4544
▁신인	-11.4545
하였었다	-11.4546
화와	-11.4546
찮	-11.4547
크리스마스	-11.4547
▁유행	-11.4548
해야만	-11.455
否	-11.4551
박정	-11.4551
an	-11.4552
돼있는	-11.4553
移民	-11.4553
전승	-11.4554
정경	-11.4555
識	-11.4555
極度	-11.4555
증원	-11.4556
組合員	-11.4558
▁장면	-11.4559
인것은	-11.456
을비롯하야	-11.4561
올렸다	-11.4561
▁절취	-11.4561
강계	-11.4562
▁農業	-11.4562
on	-11.4563
올린	-11.4563
뒷	-11.4564
국수	-11.4564
樓	-11.4564
▁금융기관	-11.4564
▁現實	-11.4565
▁사무	-11.4565
培材	-11.4568
倉庫	-11.4568
서산	-11.4568
회담의	-11.4571
국방부	-11.4571
川郡	-11.4571
가다가	-11.4572
인가를	-11.4573
▁제반	-11.4573
决議案	-11.4574
山本	-11.4575
모래	-11.4576
▁편지	-11.4577
이안	-11.4578
풍부	-11.4578
▁빛	-11.4579
▁바뀌	-11.4579
들과의	-11.4579
集會	-11.4579
사업은	-11.4581
루타	-11.4582
운동장에서	-11.4582
▁재작	-11.4583
全權	-11.4583
년말	-11.4585
댄	-11.4587
뜨거운	-11.4587
듀	-11.4587
조회	-11.4589
九九	-11.459
三日間	-11.4591
됴	-11.4592
더구나	-11.4592
○%	-11.4593
일경	-11.4593
▁硏究	-11.4595
둑	-11.4595
백삼십	-11.4596
七〇	-11.4596
신규	-11.4597
하엿다고한다	-11.4597
이나되는	-11.4597
없을것이다	-11.46
動機	-11.4601
사회주의	-11.4602
▁六月	-11.4603
공히	-11.4603
▁처음부터	-11.4604
▁자본	-11.4605
오즉	-11.4605
▁the	-11.4606
구멍	-11.4606
而	-11.4607
学	-11.4607
救護	-11.4607
▁안내	-11.4608
▁十九日	-11.4609
普通學校	-11.4609
▁補	-11.4609
임니다	-11.4611
▁높아	-11.4611
우수	-11.4612
였으나	-11.4613
이북	-11.4614
cc	-11.4615
상태가	-11.4618
三人	-11.4621
不當	-11.4622
대야	-11.4623
을것이다	-11.4624
▁믿는다	-11.4624
일전에	-11.4626
三分	-11.4627
旺盛	-11.4627
圓滿	-11.4627
讓步	-11.4627
산물	-11.4628
될때까지	-11.4628
▁김기	-11.463
공직자	-11.463
전당대회	-11.463
살림	-11.4633
▁증권	-11.4634
우고	-11.4634
벽두	-11.4634
기적	-11.4636
▁명백히	-11.4637
▁소득	-11.4638
上午	-11.4639
▁一一	-11.4641
혐	-11.4643
야마	-11.4643
▁세계적	-11.4643
군용	-11.4643
부영	-11.4645
統合	-11.4645
▁말씀	-11.4647
▁적자	-11.4647
資料	-11.4648
의처	-11.4648
▁사건이	-11.4649
▁일만	-11.4649
피난민	-11.4649
最低	-11.465
남성	-11.4651
▁국정	-11.4651
▁빌	-11.4651
수전	-11.4651
▁그러케	-11.4652
莫大	-11.4652
일제히	-11.4653
▁실상	-11.4654
구오	-11.4655
爲始	-11.4655
경부터	-11.4656
봐야	-11.4656
▁마찬가지로	-11.4657
하게되고	-11.4657
십오전	-11.4658
삼십삼	-11.4658
인천시	-11.4658
모습	-11.4658
체험	-11.4659
붙이	-11.4659
날마다	-11.4663
닫	-11.4664
구현	-11.4665
▁89	-11.4665
▁붙	-11.4666
拜	-11.4667
▁이루어진	-11.4668
시카고	-11.4668
敎養	-11.4669
회상	-11.467
▁공천	-11.4672
▁설득	-11.4672
안정을	-11.4673
그린	-11.4675
▁차지했다	-11.4675
법위반	-11.4676
▁첫재	-11.4676
없으므로	-11.4678
▁반성	-11.4678
▁요구했다	-11.4678
심이	-11.468
▁선물	-11.468
구류	-11.468
소수	-11.4681
즌	-11.4683
▁기회를	-11.4683
發送	-11.4683
잇음	-11.4684
평양부	-11.4684
▁김태	-11.4685
멀	-11.4685
▁넘겨	-11.4687
주어야	-11.4689
▁양측	-11.469
압두고	-11.4692
▁특별히	-11.4692
둘재	-11.4693
수백명	-11.4694
본래	-11.4695
▁내린	-11.4695
▁금조	-11.4696
한국인	-11.4697
남매	-11.4697
▁말하고있다	-11.4698
費用	-11.4698
▁자라	-11.4699
정관	-11.47
분자	-11.4701
됨에따라	-11.4702
모양이	-11.4703
國民黨	-11.4704
큐	-11.4704
연락처	-11.4704
▁소재	-11.4705
稻	-11.4706
하려던	-11.4706
▁지지를	-11.4707
▁依然	-11.4707
比律賓	-11.4707
▁私	-11.4708
멤버	-11.4708
▁균형	-11.4709
만명의	-11.4709
홍보	-11.4709
▁개최한다	-11.471
경비를	-11.471
▁個人	-11.4711
해달라고	-11.4711
こと	-11.4711
動員	-11.4713
예측	-11.4715
동국	-11.4715
반도체	-11.4715
외에는	-11.4716
▁외화	-11.4716
헬	-11.4716
勤	-11.4716
암동	-11.4717
▁어떠	-11.4717
만연	-11.4717
▁분양	-11.472
세출	-11.472
재령	-11.4722
▁인한	-11.4724
해소	-11.4725
질수	-11.4725
력의	-11.4725
勸	-11.4726
大藏省	-11.4728
早速	-11.4728
▁萬若	-11.4729
다음에	-11.4732
▁동독	-11.4732
에긍하야	-11.4733
한곳	-11.4733
내무부장관	-11.4734
최병	-11.4734
점심	-11.4734
덮	-11.4734
▁불과하다	-11.4734
이로다	-11.4736
▁약간의	-11.4737
잇든바	-11.4739
유출	-11.474
능히	-11.474
李仁	-11.4742
▁먼	-11.4743
김승	-11.4743
최후의	-11.4743
특색	-11.4744
언론인	-11.4745
七六	-11.4746
었지만	-11.4747
示威	-11.4747
窓	-11.4748
鐘	-11.4748
챠	-11.4748
로스앤젤레스	-11.4748
ioc	-11.4748
당신	-11.4748
대한민국	-11.4748
天候	-11.4748
▁明白	-11.4749
하자면	-11.475
금주	-11.475
役員	-11.4751
오직	-11.4752
反共	-11.4752
여중	-11.4752
토론회	-11.4753
▁안다	-11.4753
▁집행	-11.4754
▁玄	-11.4754
▁조사를	-11.4755
종용	-11.4755
이뤄	-11.4756
귀족원	-11.4758
성원	-11.4759
六三	-11.476
個月	-11.476
주부	-11.4761
잃	-11.4761
中學校	-11.4763
전하	-11.4763
렀다	-11.4763
課稅	-11.4763
머리에	-11.4763
이되는	-11.4763
지원을	-11.4765
만들어	-11.4766
움직	-11.4767
소매	-11.4769
동국대	-11.4769
사고가	-11.477
조문	-11.477
李在	-11.4772
▁故	-11.4772
盟	-11.4774
▁亦是	-11.4775
도안	-11.4776
▁나도	-11.4776
를받	-11.4776
올려	-11.4776
이내에	-11.4779
▁앉아	-11.4779
관계자는	-11.478
▁문제의	-11.4781
텐	-11.4781
에입	-11.4781
▁87	-11.4783
하려는것	-11.4783
사회에서	-11.4784
▁十六	-11.4784
시체를	-11.4784
환기	-11.4784
비중	-11.4785
▁인하	-11.4786
휴업	-11.4786
▁제삼부	-11.4788
백원을	-11.4789
깁흔	-11.4789
▁미소	-11.4789
지방에서	-11.479
복식	-11.479
불응	-11.4791
참으로	-11.4791
만여명	-11.4792
八百	-11.4792
경원	-11.4793
판에	-11.4794
없는것	-11.4794
현하	-11.4796
▁사건의	-11.4796
누르	-11.4797
普校	-11.4798
水利組合	-11.4798
▁당일	-11.4799
칠삼	-11.4799
▁보이지	-11.4799
대체로	-11.4799
▁재야	-11.48
움직임	-11.48
수뇌	-11.48
)◇	-11.4801
병은	-11.4801
도라가	-11.4801
▁활	-11.4802
합리적	-11.4802
금후의	-11.4803
鏡	-11.4805
본사특약	-11.4809
▁무소속	-11.481
▁모양이다	-11.4812
주도	-11.4813
▁진단	-11.4813
김학	-11.4815
튜	-11.4815
▁新民黨	-11.4816
오든중	-11.4818
實力	-11.4818
▁豫算	-11.482
진력	-11.482
▁생각을	-11.4821
火災	-11.4822
종로구	-11.4825
▁이끌어	-11.4826
마음을	-11.4827
완전한	-11.4827
讓	-11.4828
새로히	-11.4828
城津	-11.4829
년래	-11.4829
민자당	-11.483
▁보아서	-11.4831
貴族院	-11.4831
하게도	-11.4832
領土	-11.4832
정목	-11.4833
民政	-11.4835
各部	-11.4835
▁西方側	-11.4835
七九	-11.4835
復舊	-11.4836
▁순간	-11.4838
千名	-11.4838
감찰	-11.4839
다음과같은	-11.4839
국과	-11.484
반입	-11.484
리인	-11.4841
나와서	-11.4841
들어와	-11.4842
모든것을	-11.4842
一般的	-11.4845
홍수	-11.4846
이된다	-11.4847
▁의연	-11.4847
상공부	-11.4848
茶	-11.4849
전면	-11.4849
雅	-11.485
드러가	-11.4851
浦項	-11.4851
과여히	-11.4851
▁决	-11.4851
▁노사	-11.4852
될것이라한다	-11.4852
自殺	-11.4853
게되면	-11.4855
술을	-11.4855
▁박영	-11.4856
평화를	-11.4856
온것	-11.4857
화상	-11.4857
시반부터	-11.4858
▁없었던	-11.4858
해야한다는	-11.4859
테로	-11.4861
▁세미나	-11.4861
特選	-11.4861
▁또하나의	-11.4862
대검	-11.4863
▁核	-11.4863
끌고	-11.4863
영웅	-11.4864
▁추정	-11.4865
▁동아일보	-11.4868
▁達	-11.4869
番地	-11.487
碑	-11.487
狂	-11.487
굽	-11.487
부과	-11.487
▁녀자	-11.4871
안팎	-11.4871
昭和	-11.4871
六四	-11.4872
▁기보	-11.4872
될것이라고한다	-11.4872
예보	-11.4873
법규	-11.4874
관헌	-11.4876
▁상정	-11.4876
▁發見	-11.4877
협약	-11.4878
제철	-11.4879
오픈	-11.488
▁노동자	-11.4881
▁行政	-11.4882
장학	-11.4883
주기를	-11.4884
▁부과	-11.4885
성금	-11.4885
浮	-11.4885
▁보여주	-11.4886
신동	-11.4887
안동현	-11.4887
김화	-11.4887
일대에	-11.4888
八〇	-11.4888
▁두번	-11.489
석으로	-11.489
벗어	-11.489
어도	-11.489
잇다가	-11.4892
▁지나친	-11.4894
이래로	-11.4895
실시된	-11.4895
積極的	-11.4896
幹事	-11.4896
겹	-11.4897
▁아마도	-11.4898
출신의	-11.4898
ら	-11.4898
무소속	-11.4899
포드	-11.49
▁與黨	-11.49
▁국산	-11.4901
녹음	-11.4901
를비롯한	-11.4901
▁논리	-11.4902
배나	-11.4902
월경	-11.4903
▁西方	-11.4905
糓	-11.4906
요건	-11.4906
성당	-11.4907
畓	-11.4909
謝	-11.491
좃	-11.4911
▁번역	-11.4911
수수료	-11.4911
波瀾	-11.4911
補充	-11.4912
시켰	-11.4912
스피	-11.4912
▁說明	-11.4912
경제정책	-11.4912
조건이	-11.4912
을밧고	-11.4913
교훈	-11.4915
▁편성	-11.4915
쟁점	-11.4915
타가	-11.4916
▁이에앞서	-11.4917
▁축구	-11.4918
產地	-11.4919
▁있는것	-11.4919
기능을	-11.4921
英佛	-11.4922
민중의	-11.4922
냈	-11.4922
▁가옥	-11.4923
발표하였다	-11.4924
▁개최하고	-11.4924
좋다	-11.4924
▁생각된다	-11.4925
골목	-11.4925
보조를	-11.4926
하야서는	-11.4926
하는것이라	-11.4927
氣配	-11.4927
▁무료	-11.4927
▁개별	-11.4929
捕	-11.4929
高位	-11.493
蒙	-11.493
가슴에	-11.4931
구칠	-11.4931
지금은	-11.4931
市長	-11.4931
本社特約	-11.4932
▁방법으로	-11.4932
越盟	-11.4932
悲觀	-11.4933
▁것같다	-11.4933
辭表	-11.4933
十萬圓	-11.4935
▁건립	-11.4935
▁좋겠다	-11.4937
로인하여	-11.4938
▁동군	-11.4939
▁漸次	-11.494
不利	-11.494
후보의	-11.494
▁十一日	-11.4941
학생들의	-11.4942
실태	-11.4942
大陸	-11.4942
▁세우고	-11.4942
▁주장하는	-11.4943
으러	-11.4944
강동	-11.4945
葬	-11.4945
▁成功	-11.4946
▁다시한번	-11.4946
흥행	-11.4947
되지않고	-11.4949
종일	-11.4951
▁보사부	-11.4952
추계	-11.4952
鈴木	-11.4953
暴落	-11.4953
展望	-11.4954
단절	-11.4954
師團	-11.4955
▁영양	-11.496
엇스며	-11.4961
▁합계	-11.4961
▁다양한	-11.4962
▁대학생	-11.4962
▁반공	-11.4962
진척	-11.4962
대부분은	-11.4962
이와같은	-11.4965
신념	-11.4965
대표의	-11.4965
盤	-11.4965
況	-11.497
▁융자	-11.4971
차전	-11.4972
착오	-11.4972
현미	-11.4975
구출	-11.4975
東京電話	-11.4975
천만불	-11.4977
강요	-11.4977
各各	-11.4978
동계	-11.4978
송전	-11.4979
김광	-11.4979
(4)	-11.498
당지에서	-11.4981
따러	-11.4982
하여야할것이다	-11.4982
안다	-11.4982
상금	-11.4982
와갓치	-11.4984
디주	-11.4987
엔진	-11.4987
정치가	-11.4988
오후육시	-11.499
순방	-11.4991
▁바이다	-11.4991
백환	-11.4991
▁아직까지	-11.4992
을얻	-11.4993
法令	-11.4993
伸	-11.4994
配置	-11.4995
할수업시	-11.4996
이입	-11.4996
각디	-11.4996
잡은	-11.4997
학대	-11.4997
냉	-11.4997
同黨	-11.4997
▁출입	-11.4997
▁제주	-11.5
▁부부	-11.5001
돌이	-11.5001
의일부	-11.5001
대법원장	-11.5001
金融組合	-11.5002
제씨의	-11.5003
첨단	-11.5003
남조선	-11.5005
습관	-11.5006
총회를	-11.5006
第一次	-11.5007
회사측	-11.5008
比率	-11.5009
이유로	-11.501
ica	-11.5011
방식을	-11.5012
든중	-11.5012
도내	-11.5013
淺	-11.5014
▁정확한	-11.5015
휘발유	-11.5015
民正党	-11.5015
形態	-11.5015
防衞	-11.5017
경찰국	-11.5018
대담	-11.5018
정희	-11.5018
되엇다한다	-11.5019
▁내외	-11.502
몰려	-11.502
▁경상	-11.5022
타당	-11.5022
기근	-11.5023
국무위원	-11.5023
健康	-11.5023
樣	-11.5023
칠십오	-11.5023
출장하야	-11.5025
천만달러	-11.5026
급수	-11.5026
회사가	-11.5026
反動	-11.5027
▁자백	-11.5028
▁배정	-11.503
▁그들에게	-11.503
▁박종	-11.503
되지않	-11.5032
▁동아일보사	-11.5032
▁제출한	-11.5033
▁통행	-11.5034
우호	-11.5034
聽	-11.5035
아메리카	-11.5036
擁護	-11.5036
次郞	-11.5036
자위	-11.5037
가슴을	-11.5037
除去	-11.5037
順調	-11.5039
부탁	-11.504
타임스	-11.504
듬	-11.5041
九五	-11.5041
주연	-11.5042
산림	-11.5042
mbc	-11.5043
제조업	-11.5043
변화가	-11.5043
▁될수	-11.5043
▁十四	-11.5044
가잇슨후	-11.5044
金仁	-11.5045
채를	-11.5046
언제	-11.5048
同會	-11.5048
成長	-11.5048
하게될것	-11.5049
▁合	-11.5049
라운드	-11.505
대외	-11.505
개인전	-11.5051
발화	-11.5051
▁인해	-11.5053
▁떠난	-11.5053
목적이	-11.5053
▁檢討	-11.5054
뚜렷	-11.5054
肅	-11.5056
엄중	-11.5056
으론	-11.5057
▁株式	-11.5057
관계당국	-11.5057
오륙	-11.5058
배수	-11.5058
공로	-11.5059
대학장	-11.5061
▁생겨	-11.5061
▁일등	-11.5063
쪽에서	-11.5065
의증가	-11.5066
▁출범	-11.5067
▁제주도	-11.5067
지라도	-11.507
일변	-11.5072
▁벌이고	-11.5074
▁獨立	-11.5074
광명	-11.5075
般	-11.5075
▁김창	-11.5076
▁일본정부	-11.5076
▁앞으로는	-11.5077
▁휴지통	-11.5078
하는동시	-11.5078
01	-11.5078
의식을	-11.5078
▁全部	-11.5079
입항	-11.508
▁모르	-11.508
▁까닭	-11.5081
長期	-11.5081
신속	-11.5082
자중	-11.5082
五錢	-11.5082
종래의	-11.5082
▁투쟁	-11.5082
동무	-11.5082
하오이시	-11.5083
소송을	-11.5084
에게대하야	-11.5084
뇌염	-11.5085
광복	-11.5085
물품을	-11.5085
하드래도	-11.5085
▁만주국	-11.5086
さ	-11.5087
인당	-11.5087
出張	-11.5088
無產	-11.5088
할수업	-11.5088
▁(2)	-11.5088
회를개최	-11.5089
초안	-11.5089
▁大阪	-11.509
基督敎	-11.509
수위	-11.509
낸다	-11.5091
▁主要	-11.5091
칠사	-11.5092
▁추구	-11.5094
오른	-11.5094
촌동	-11.5097
ま	-11.5097
을통하야	-11.5097
▁없으나	-11.5098
하얏다가	-11.5099
주요한	-11.5099
▁당연	-11.5099
비극	-11.51
호송	-11.51
화합	-11.51
보았	-11.5101
▁탁	-11.5102
▁것인지	-11.5102
되리라는	-11.5102
▁알려져	-11.5102
경찰이	-11.5102
놉	-11.5103
用意	-11.5104
정권이	-11.5104
▁商工部	-11.5105
용어	-11.5106
▁당연한	-11.5106
리승만	-11.5107
었을	-11.5107
▁무용	-11.5107
감정을	-11.5108
地上	-11.5108
▁大韓	-11.5108
방직	-11.5109
현상은	-11.5109
하야그	-11.511
▁사회주의	-11.5113
놋	-11.5113
▁當然	-11.5114
▁받아들이	-11.5114
▁外交	-11.5117
자체의	-11.5119
사정으로	-11.5119
바꾸어	-11.5119
컬러	-11.512
막을	-11.5121
主權	-11.5122
긴다	-11.5122
신입	-11.5122
▁헐	-11.5122
競	-11.5123
맑은	-11.5124
훨신	-11.5124
선배	-11.5125
▁目的	-11.5126
모순	-11.5126
六年	-11.5127
간단	-11.5129
경기가	-11.5129
回收	-11.513
정면	-11.513
이내	-11.513
불구속	-11.513
격전	-11.513
의원과	-11.5131
國軍	-11.5131
이었고	-11.5132
천여만원	-11.5132
▁하등의	-11.5135
事前	-11.5136
하기로되어	-11.5138
기관지	-11.514
建議	-11.514
▁今朝	-11.5141
버리는	-11.5141
문제의	-11.5142
장개석	-11.5143
七七	-11.5144
어리	-11.5145
日發	-11.5145
밧고	-11.5146
질이	-11.5146
이아닌	-11.5147
六二	-11.5148
저금	-11.5149
山東	-11.515
일동은	-11.515
속개	-11.515
醫學	-11.5151
더위	-11.5153
끌어	-11.5153
方式	-11.5153
리사	-11.5155
치기	-11.5156
▁방향으로	-11.5158
▁裵	-11.5158
있어서	-11.516
아데나워	-11.5162
헝가리	-11.5162
차대전	-11.5162
▁여의도	-11.5162
이절	-11.5163
땅을	-11.5163
품은	-11.5163
방역	-11.5164
▁무엇보다	-11.5164
이락	-11.5165
지난오일	-11.5166
十五分	-11.5168
참상	-11.5168
????????	-11.5169
公普校	-11.5169
뎨출	-11.5169
▁확실히	-11.517
축출	-11.5171
복무	-11.5173
▁기획	-11.5174
大引	-11.5175
한일이다	-11.5175
▁엇더한	-11.5175
정말	-11.5175
▁간첩	-11.5176
상류	-11.5177
출제	-11.5177
▁이들을	-11.5178
▁삼이	-11.5179
▁배제	-11.518
新田	-11.518
▁납치	-11.518
若干	-11.5182
주장을	-11.5182
活躍	-11.5183
▁간주	-11.5183
▁신중	-11.5183
백구십	-11.5184
▁구타	-11.5186
발족	-11.5189
쪽에	-11.5189
수양	-11.519
▁사무실	-11.519
위기를	-11.5192
▁준공	-11.5192
不滿	-11.5193
거름	-11.5193
일만에	-11.5193
▁인쇄	-11.5194
각오	-11.5195
롯	-11.5196
懷	-11.5197
開幕	-11.5197
▁어려울	-11.5198
▁조선내	-11.5198
삿	-11.52
학생들이	-11.5201
있다면	-11.5201
▁인하야	-11.5201
검열	-11.5202
부결	-11.5202
보조금	-11.5203
芝	-11.5204
反撥	-11.5204
豫選	-11.5204
送還	-11.5204
解除	-11.5205
談話	-11.5205
폐막	-11.5205
금융기관	-11.5207
▁일천	-11.5207
목뎍	-11.521
▁주관	-11.521
입국	-11.5211
목적은	-11.5211
백명의	-11.5212
교육기관	-11.5213
초부	-11.5214
▁십일월	-11.5214
주먹	-11.5216
▁提案	-11.5216
▁운명	-11.5218
前塲	-11.5218
▁흥분	-11.5219
철강	-11.522
텰도	-11.5221
▁아세아	-11.5222
社會黨	-11.5222
백남	-11.5224
▁閔	-11.5224
拂込	-11.5225
잃고	-11.5225
이엇는데	-11.5226
법으로	-11.5226
잠복	-11.5227
參與	-11.5227
▁국민들의	-11.5229
땅에	-11.523
크다	-11.523
전담	-11.523
않겠다	-11.5231
▁동신	-11.5232
▁解决	-11.5234
마스	-11.5235
없을것	-11.5235
▁마음을	-11.5235
신중	-11.5236
로보면	-11.5238
될터	-11.5239
pa	-11.524
▁효과를	-11.524
▁長期	-11.524
공인	-11.524
五萬	-11.5241
본선	-11.5241
原案	-11.5243
規	-11.5243
▁회화	-11.5244
미정	-11.5244
학습	-11.5244
▁관계자	-11.5244
鍊	-11.5246
乎	-11.5246
▁정착	-11.5247
密陽	-11.5248
pc	-11.5249
▁한국측	-11.5249
순환	-11.525
▁지연	-11.525
▁진행중	-11.5251
▁構成	-11.5251
▁감행	-11.5253
臺北	-11.5253
일절	-11.5254
홍순	-11.5255
▁프로그램	-11.5256
▁조국	-11.5256
상원의원	-11.526
그늘	-11.5261
전산	-11.5264
正租	-11.5264
▁제이부	-11.5266
군정	-11.5266
프레스	-11.5266
提携	-11.5267
簡單	-11.5268
豫測	-11.5268
있는것으로	-11.5268
醫師	-11.5269
복권	-11.5269
ic	-11.527
함안	-11.527
되엿스며	-11.527
▁적어	-11.5271
좌의	-11.5271
第三部	-11.5272
할것이니	-11.5274
유임	-11.5274
되는것을	-11.5274
▁지난이십일	-11.5274
化學	-11.5275
分子	-11.5276
살수	-11.5276
스위스	-11.5277
쳥	-11.5277
있는것을	-11.5278
무지	-11.5279
東部	-11.5281
▁의미를	-11.5281
유력	-11.5282
▁시체	-11.5283
에제출	-11.5283
▁韓国	-11.5283
유가족	-11.5284
각지방	-11.5284
바위	-11.5284
第八	-11.5285
화된	-11.5286
▁라디오	-11.5287
존중	-11.5287
封	-11.5288
긔자	-11.5289
景氣	-11.5289
▁운행	-11.5289
챔피언	-11.5289
複雜	-11.5289
수업다	-11.5291
▁야기	-11.5291
조와	-11.5293
선로	-11.5293
힘쓰	-11.5293
▁84	-11.5294
▁입건	-11.5296
고소	-11.5296
▁뽑아	-11.5296
▁술을	-11.5297
商會	-11.5297
내무부	-11.5298
김일	-11.5299
任務	-11.53
▁교장	-11.5302
제칠	-11.5303
八分	-11.5304
누계	-11.5304
말하는	-11.5306
건의안	-11.5307
共和	-11.5308
▁범인은	-11.531
哀	-11.531
하고있다한다	-11.531
輪	-11.531
~8	-11.5313
▁백악관	-11.5313
되더라	-11.5314
燒	-11.5315
부품	-11.5315
明治	-11.5317
협동조합	-11.5317
가르치	-11.5317
생각한다	-11.5319
▁검찰에	-11.532
한재	-11.532
어제	-11.5322
犯人	-11.5322
더러	-11.5323
民韓	-11.5325
海外	-11.5326
식구	-11.5326
to	-11.5327
司會	-11.5328
▁자유중국	-11.5329
경성역	-11.5329
의혹	-11.5331
▁주가	-11.5331
방적	-11.5331
▁뛰	-11.5332
升	-11.5332
矛盾	-11.5332
貯蓄	-11.5332
공사에	-11.5332
할수있	-11.5332
▁취미	-11.5333
하고잇든	-11.5334
능력이	-11.5334
품이	-11.5334
특별회계	-11.5335
공영	-11.5335
▁그렇다면	-11.5336
생길	-11.5336
화려한	-11.5337
을거듭	-11.5338
경복궁	-11.5338
우물	-11.5338
우편소	-11.5339
▁저축	-11.5339
여상	-11.534
의원총회	-11.534
▁일팔	-11.5341
채로	-11.5344
衛生	-11.5348
사무국장	-11.5349
▁理解	-11.535
리면	-11.5352
五一	-11.5353
晴	-11.5353
詞	-11.5353
整備	-11.5354
雜誌	-11.5354
機能	-11.5356
불통	-11.5356
한다하면	-11.5357
▁別	-11.5357
천팔백	-11.5359
▁방안	-11.5359
▁밖에	-11.536
분동안	-11.5361
취미	-11.5361
▁찍	-11.5363
김치	-11.5364
검사국	-11.5365
사람도	-11.5366
사나이	-11.5368
앗다	-11.5368
추격	-11.537
가해자	-11.537
국가보안법	-11.537
不幸	-11.5371
▁붕괴	-11.5371
차라리	-11.5372
동행	-11.5372
에반하야	-11.5374
賠償	-11.5375
넷	-11.5375
三個	-11.5375
사우디	-11.5375
過般	-11.5376
간신히	-11.5376
確信	-11.5376
午後八時	-11.5376
값을	-11.5377
타이틀	-11.5377
▁產業	-11.5377
금으로	-11.5379
水準	-11.5379
자극	-11.538
본토	-11.538
▁多數	-11.538
▁조흔	-11.538
이십여	-11.538
창조	-11.538
▁현안	-11.5381
수만	-11.5382
▁전문가	-11.5382
으로보면	-11.5382
전문가들은	-11.5387
권은	-11.5388
▁무조건	-11.5389
상반	-11.5389
일본은	-11.539
불문	-11.539
전등	-11.539
무리한	-11.5393
▁三三	-11.5393
박태	-11.5393
峯	-11.5396
畧	-11.5397
改編	-11.5397
▁재래	-11.5398
탈락	-11.54
침공	-11.54
민사	-11.54
발전소	-11.5401
존속	-11.5403
딸아서	-11.5403
공황	-11.5403
급속	-11.5404
박경	-11.5404
에관해	-11.5405
심사를	-11.5406
입당	-11.5406
▁入選	-11.5408
▁늘리	-11.5408
▁저지	-11.5409
백만환	-11.5409
▁일구삼	-11.541
二個	-11.5411
안면	-11.5412
▁十六日	-11.5413
여기에	-11.5413
리민	-11.5413
못할	-11.5413
식사	-11.5414
▁느끼게	-11.5415
▁吾人	-11.5416
크리	-11.5416
발표한	-11.5417
▁패배	-11.5417
삼십여명	-11.5417
다리를	-11.5417
辯護士	-11.5418
[...]
